'<pad>'
'<EOS>'
', _'
'the_'
'._'
'_'
'in_'
'of_'
'to_'
'die_'
'der_'
'and_'
'und_'
'a_'
'that_'
'is_'
's_'
'zu_'
'I_'
'for_'
'den_'
'on_'
'n_'
'-_'
'we_'
'en_'
'be_'
'this_'
'für_'
'dass_'
'ist_'
'von_'
'are_'
'have_'
'es_'
'nicht_'
'it_'
'wir_'
'as_'
'das_'
'not_'
'des_'
'with_'
'an_'
'e_'
'auf_'
'which_'
'eine_'
'European_'
't_'
'werden_'
'mit_'
'will_'
'im_'
'by_'
'The_'
'ich_'
'. _'
'Union_'
'auch_'
'has_'
'Mr_'
'dem_'
'ein_'
'wird_'
' - _'
'sich_'
'also_'
'haben_'
'ing_'
'Ich_'
'so_'
'ed_'
'all_'
'Die_'
'would_'
'd_'
'um_'
'was_'
'Commission_'
'President_'
'hat_'
'sind_'
'at_'
'er_'
'from_'
'our_'
'r_'
'should_'
'We_'
'Kommission_'
'über_'
'ung_'
'but_'
'wie_'
'In_'
'Herr_'
'sie_'
'als_'
'zur_'
'must_'
': _'
'EU_'
'been_'
'you_'
'or_'
'can_'
'einer_'
'Parliament_'
'It_'
'Wir_'
'?_'
'Sie_'
'do_'
'dieser_'
'like_'
'y_'
'their_'
'Council_'
'report_'
'more_'
'diese_'
'Europäischen_'
'Member_'
'uns_'
'States_'
'einen_'
'bei_'
'müssen_'
'möchte_'
'its_'
'they_'
'am_'
'there_'
'Europe_'
'these_'
'Das_'
'Präsident_'
'one_'
'us_'
' – _'
''_'
'noch_'
') _'
'nur_'
' _'
'vor_'
'countries_'
'very_'
'zum_'
'This_'
'Es_'
'können_'
'muss_'
'wenn_'
'diesem_'
'nach_'
'about_'
'what_'
'Bericht_'
'ten_'
'oder_'
'other_'
'my_'
'aus_'
'kann_'
'Mitgliedstaaten_'
'aber_'
'/_'
'need_'
'no_'
'Parlament_'
'up_'
'people_'
'ng_'
'only_'
'sehr_'
'important_'
'policy_'
'einem_'
'who_'
'; _'
'sein_'
'new_'
' (_'
'time_'
'out_'
'durch_'
'ly_'
'te_'
'if_'
'' _'
'support_'
'now_'
'Europa_'
'such_'
'those_'
'mehr_'
'Europäische_'
'dieses_'
'Der_'
'into_'
'work_'
'm_'
'(_'
'way_'
'make_'
'when_'
'take_'
'! _'
'because_'
'being_'
'therefore_'
'wurde_'
'were_'
'them_'
'made_'
'Commissioner_'
'alle_'
'europäischen_'
'man_'
'keine_'
'zwischen_'
'many_'
'any_'
'Frau_'
'rights_'
'hier_'
'gegen_'
'Rat_'
'diesen_'
'- _'
'than_'
'believe_'
'some_'
'able_'
'between_'
'Frage_'
'Committee_'
'’_'
'unsere_'
'say_'
'l_'
'eines_'
'war_'
'social_'
'mich_'
'ungen_'
'sowie_'
'sondern_'
'ihre_'
'dies_'
'first_'
'fact_'
'political_'
'o_'
'That_'
'issue_'
'had_'
'Herrn_'
'market_'
'proposal_'
'damit_'
'anderen_'
'point_'
'debate_'
'just_'
'human_'
'how_'
'economic_'
'right_'
'jedoch_'
'ation_'
'bereits_'
'part_'
'heute_'
'most_'
'against_'
'!_'
'ion_'
'want_'
'question_'
'does_'
'even_'
'al_'
'Maßnahmen_'
'possible_'
'much_'
'me_'
'denn_'
'dann_'
'sollte_'
'national_'
'future_'
'same_'
'country_'
'situation_'
'gibt_'
'de_'
'cannot_'
'well_'
'unter_'
'end_'
'already_'
'order_'
'good_'
'course_'
'Entwicklung_'
'Community_'
'public_'
'habe_'
'daß_'
'1_'
'year_'
'two_'
'too_'
'sollten_'
'own_'
'here_'
'development_'
'clear_'
'world_'
'use_'
'see_'
'sagen_'
'House_'
'Bürger_'
'where_'
'weil_'
'particular_'
'measures_'
'wäre_'
'vote_'
'denen_'
'Vorschlag_'
'over_'
'g_'
'bin_'
'Mrs_'
'Menschen_'
'Länder_'
'years_'
'within_'
'however_'
'dafür_'
'da_'
'both_'
'under_'
'said_'
'mir_'
'ihrer_'
'ganz_'
'As_'
'why_'
'think_'
'still_'
'know_'
'gentlemen_'
'number_'
'doch_'
'common_'
'action_'
'jetzt_'
'geht_'
'level_'
'his_'
'area_'
'Zeit_'
'unserer_'
'international_'
'he_'
'darauf_'
'areas_'
'Parlaments_'
' '_'
'vom_'
'today_'
'citizens_'
'your_'
'neuen_'
'could_'
'view_'
'process_'
'last_'
'5_'
'place_'
'example_'
'There_'
'Fraktion_'
'Zusammenarbeit_'
'Richtlinie_'
'system_'
'may_'
'information_'
'immer_'
'hope_'
'far_'
'wollen_'
're_'
'great_'
'Kommissar_'
'seine_'
'lich_'
'law_'
'certain_'
'Namen_'
'issues_'
'going_'
'Bereich_'
'2_'
'meine_'
'allem_'
'Jahr_'
'würde_'
'rapporteur_'
'proposals_'
'problems_'
'means_'
'einige_'
'directive_'
'case_'
'allen_'
'Wenn_'
'If_'
'Diese_'
'Arbeit_'
'ohne_'
'ladies_'
'taken_'
'through_'
'regard_'
'budget_'
'then_'
'set_'
'problem_'
'down_'
'before_'
'Madam_'
'worden_'
'stellen_'
'put_'
'legal_'
'amendments_'
'agreement_'
'Rahmen_'
'rules_'
'meiner_'
'making_'
'long_'
'le_'
'ihren_'
'cooperation_'
'United_'
'Sicherheit_'
'Politik_'
' "_'
'wurden_'
'insbesondere_'
'aid_'
'z_'
'without_'
'services_'
'dazu_'
'c_'
'behalf_'
'bis_'
'andere_'
'Fragen_'
'2000_'
'selbst_'
'her_'
'Euro_'
'women_'
'wish_'
'whether_'
'Kollegen_'
'since_'
'resolution_'
'given_'
'Wie_'
'Recht_'
'Members_'
'Jahren_'
'respect_'
'position_'
'decision_'
'Unternehmen_'
'thank_'
'necessary_'
'basis_'
'Rates_'
'Im_'
'2001_'
'zwei_'
'particularly_'
'ment_'
'machen_'
'give_'
'Ziel_'
'neue_'
'financial_'
'again_'
'Ihnen_'
'zwar_'
'go_'
'energy_'
'wieder_'
'tion_'
'programme_'
'ob_'
'möglich_'
'k_'
'few_'
'etwas_'
'Zusammenhang_'
'Probleme_'
'Land_'
'tun_'
'lichen_'
'further_'
'continue_'
'ally_'
'whole_'
've_'
'soll_'
'next_'
'europäische_'
'done_'
'ce_'
'adopted_'
'Thema_'
'Staaten_'
'Dies_'
'A_'
'– _'
'wichtig_'
'present_'
'health_'
'gen_'
'ensure_'
'einmal_'
'besteht_'
'3_'
'% _'
'wissen_'
'security_'
'matter_'
'group_'
'conditions_'
'Treaty_'
'Lage_'
'Aussprache_'
'viel_'
'unterstützen_'
'terms_'
'sector_'
'protection_'
'opinion_'
'Problem_'
')_'
'proposed_'
'What_'
'However_'
'sten_'
'politischen_'
'lassen_'
'i_'
'h_'
'different_'
'concerned_'
'State_'
'Ansicht_'
'welcome_'
'schon_'
'legislation_'
'kommen_'
'forward_'
'come_'
'Rolle_'
'Mittel_'
'2002_'
'wirklich_'
'trade_'
'something_'
'help_'
'favour_'
'ask_'
'Unterstützung_'
'Regierung_'
'Ländern_'
'Group_'
'G'
'Bedeutung_'
'three_'
'schen_'
'progress_'
'framework_'
'agree_'
'So_'
'I'
'Deshalb_'
'Ausschuss_'
'6_'
'2004_'
'. - (_'
'together_'
'halten_'
'geben_'
'darüber_'
'They_'
'2006_'
'ous_'
'once_'
'million_'
'ischen_'
'et_'
'ern_'
'after_'
'S'
'On_'
'Menschenrechte_'
'Meinung_'
'Frauen_'
'4_'
'nun_'
'itself_'
'Welt_'
'These_'
'result_'
'politische_'
'large_'
'institutions_'
'fully_'
'ben_'
'Was_'
'Presidency_'
'No_'
'2005_'
'000_'
'unseren_'
'shall_'
'seit_'
'ja_'
'For_'
'Fall_'
'Abstimmung_'
'’ _'
'ts_'
'third_'
'st_'
'role_'
'politik_'
'less_'
'greater_'
'Situation_'
'Gemeinschaft_'
'working_'
'ter_'
'needs_'
'nationalen_'
'democratic_'
'davon_'
'better_'
'Weise_'
'Umsetzung_'
'Berichterstatter_'
'yet_'
'used_'
'se_'
'questions_'
'money_'
'including_'
'ihr_'
'glaube_'
'gesagt_'
'concerns_'
'Ziele_'
'But_'
'Auch_'
'viele_'
'nd_'
'ch_'
'Schutz_'
'Nach_'
'E'
'Beispiel_'
' % _'
'während_'
'stellt_'
'state_'
'standards_'
'really_'
'provide_'
'nden_'
'hen_'
'having_'
'freedom_'
'efforts_'
'deal_'
'clearly_'
'chen_'
'Herren_'
'while_'
'transport_'
'towards_'
'seiner_'
'rather_'
'others_'
'nehmen_'
'liche_'
'große_'
'führen_'
'f_'
'did_'
'danken_'
'authorities_'
'approach_'
'another_'
'Zukunft_'
'Und_'
'Teil_'
'China_'
'regulation_'
'quite_'
'principle_'
'interests_'
'high_'
'erhalten_'
'environment_'
'drei_'
'deren_'
'daher_'
'committee_'
'bringen_'
'ago_'
'Weg_'
'Europas_'
'15_'
' „_'
'sowohl_'
'reform_'
'nämlich_'
'ne_'
'ions_'
'industry_'
'ies_'
'based_'
'always_'
'alles_'
'aller_'
'Vorschläge_'
'Government_'
'Damen_'
'2003_'
'Änderungsantrag_'
'wichtige_'
'subject_'
'specific_'
'sollen_'
'second_'
'safety_'
'results_'
'resources_'
'ors_'
'natürlich_'
'importance_'
'ieren_'
'hoffe_'
'government_'
'gegenüber_'
'free_'
'find_'
'difficult_'
'call_'
'betrifft_'
'USA_'
'Grundlage_'
'Ende_'
'At_'
'8_'
'wo_'
'relations_'
'reason_'
'könnte_'
'interest_'
'ge_'
'fundamental_'
'especially_'
'during_'
'consider_'
'competition_'
'appropriate_'
'Abgeordneten_'
' ‘_'
'taking_'
'steht_'
'positive_'
'kommt_'
'every_'
'dürfen_'
'attention_'
'account_'
'access_'
'O'
'EUR_'
'Ausschusses_'
'words_'
'sprechen_'
'regions_'
'quality_'
'programmes_'
'procedure_'
'points_'
'opportunity_'
'let_'
'hand_'
'gut_'
'general_'
'ert_'
'day_'
'change_'
'ble_'
'Strategie_'
'9_'
'1999_'
'0_'
'nen_'
'men_'
'members_'
'majority_'
'governments_'
'ers_'
'democracy_'
'current_'
'allerdings_'
'Millionen_'
'workers_'
'weiterhin_'
'though_'
'things_'
'small_'
'real_'
'igen_'
'gemeinsame_'
'force_'
'feel_'
'eren_'
'enlargement_'
'co'
'Wirtschaft_'
'Office_'
'Er_'
'Debatte_'
'Änderungsanträge_'
'various_'
'setzen_'
'ren_'
'nt_'
'major_'
'look_'
'line_'
'internal_'
'erreichen_'
'environmental_'
'darin_'
'best_'
'M'
'Ihre_'
'Eine_'
',_'
'welche_'
'stehen_'
'society_'
'rs_'
'projects_'
'p_'
'internationalen_'
'increase_'
'funds_'
'finden_'
'ersten_'
'employment_'
'darf_'
'called_'
'become_'
'allow_'
'age_'
'System_'
'Russia_'
'Präsidentin_'
'Mit_'
'Ebene_'
'Art_'
'Affairs_'
'30_'
'öffentlichen_'
'würden_'
'wichtigen_'
'voted_'
'ting_'
'start_'
'sozialen_'
'sicher_'
'sei_'
'regional_'
'power_'
'period_'
'letzten_'
'least_'
'kein_'
'implementation_'
'iert_'
'full_'
'em_'
'eigenen_'
'deshalb_'
'companies_'
'certainly_'
'beim_'
'Verantwortung_'
'Regionen_'
'Ein_'
'Aufgabe_'
'20_'
'2007_'
'weitere_'
'text_'
'region_'
'peace_'
'mentioned_'
'keinen_'
'involved_'
'initiative_'
'indeed_'
'gilt_'
'che_'
'aware_'
'Verfassung_'
'Region_'
'Möglichkeit_'
'Lösung_'
'Israel_'
'Interesse_'
'Grund_'
'Als_'
'Aber_'
'products_'
'negotiations_'
'meeting_'
'longer_'
'extremely_'
'enden_'
'decisions_'
'back_'
'achieve_'
'Verfahren_'
'Punkt_'
'Lissabon_'
'Initiative_'
'Bekämpfung_'
'B'
'understand_'
'single_'
'often_'
'nichts_'
'life_'
'ive_'
'improve_'
'gegeben_'
'einigen_'
'economy_'
'arbeiten_'
'U'
'Turkey_'
'Jahre_'
'Finanz'
'Dienstleistungen_'
'C_'
'Bezug_'
'Beziehungen_'
'Abkommen_'
'A'
'7_'
'11_'
'weiß_'
'weiter_'
'vor'
'thing_'
'term_'
'tabled_'
'serious_'
'sche_'
'ry_'
'rn_'
'responsible_'
'research_'
'policies_'
'open_'
'liegt_'
'legislative_'
'key_'
'keit_'
'jobs_'
'inter'
'following_'
'field_'
'el_'
'due_'
'daran_'
'create_'
'brauchen_'
'besser_'
'beispielsweise_'
'WTO_'
'Verordnung_'
'Verhandlungen_'
'Sozial'
'Secondly_'
'Erklärung_'
'C'
'Artikel_'
'wirtschaftlichen_'
'vielleicht_'
'u_'
'simply_'
'sehen_'
'responsibility_'
'regards_'
'prevent_'
'plan_'
'parties_'
'objective_'
'innerhalb_'
'ierung_'
'groups_'
'gemacht_'
'gehen_'
'ful_'
'form_'
'essential_'
'ent_'
'dessen_'
'dabei_'
'ate_'
'actually_'
'ab_'
'Rechte_'
'Lisbon_'
'Auf_'
'äußerst_'
'weit_'
'terrorism_'
'strategy_'
'soziale_'
'solche_'
'si'
'schaffen_'
'pa'
'notwendig_'
'non_'
'nach'
'main_'
'lead_'
'land_'
'klar_'
'in'
'heit_'
'halte_'
'gerade_'
'einzelnen_'
'ebenfalls_'
'context_'
'accept_'
'ab'
'Ta'
'P'
'Förderung_'
'France_'
'Fortschritte_'
'Directive_'
'Court_'
'Convention_'
'Bedingungen_'
'), _'
'ze'
'werde_'
'upon_'
'unser_'
'stand_'
'sch_'
'provisions_'
'production_'
'ons_'
'ns_'
'never_'
'little_'
'him_'
'heißt_'
'gemeinsamen_'
'fight_'
'en'
'each_'
'deutlich_'
'concerning_'
'besonders_'
'angenommen_'
'agreements_'
'Wort_'
'Vereinigten_'
'UN_'
'Kosten_'
'Kommissarin_'
'Entscheidung_'
'DE_'
'D'
'A5_'
'10_'
'“ _'
'water_'
'verschiedenen_'
'themselves_'
'ss_'
'seinen_'
'seen_'
'risk_'
'remain_'
'nde_'
'impact_'
'ihnen_'
'idea_'
'ia_'
'hin'
'gt_'
'genommen_'
'foreign_'
'ent'
'elections_'
'einfach_'
'effective_'
'dort_'
'congratulate_'
'beiden_'
'bedeutet_'
'asked_'
'agricultural_'
'Un'
'Türkei_'
'To_'
'Tagesordnung_'
'T'
'Minister_'
'La'
'Kolleginnen_'
'Kinder_'
'Hilfe_'
'Dialog_'
'Auswirkungen_'
'Auffassung_'
'Antwort_'
'. _'
'waren_'
'unterstützt_'
'th_'
'sen_'
'nächsten_'
'needed_'
'ments_'
'management_'
'levels_'
'ity_'
'is'
'ige_'
'hinaus_'
'guarantee_'
'großen_'
'get_'
'fragen_'
'erreicht_'
'effect_'
'ebenso_'
'darum_'
'dar_'
'cases_'
'begrüße_'
'Rights_'
'Re'
'Ko'
'Jahres_'
'Institutionen_'
'Finally_'
'Er'
'Bevölkerung_'
'Aus_'
'Anwendung_'
'And_'
'Amendment_'
'ö'
'u'
'ty_'
'sure_'
'success_'
'provided_'
'presented_'
'on'
'objectives_'
'mean_'
'matters_'
'makes_'
'könnten_'
'indem_'
'ic_'
'ian_'
'hätte_'
'her'
'handelt_'
'food_'
'el'
'education_'
'draft_'
'doing_'
'che'
'bzw_'
'bring_'
'b'
'aufgrund_'
'aspects_'
'ar'
'amendment_'
'above_'
'Verbraucher_'
'Unter'
'Umwelt_'
'Terrorismus_'
'My_'
'Hinblick_'
'Form_'
'Entschließung_'
'Di'
'Bei_'
'Ausdruck_'
'Article_'
'12_'
')._'
' '
'Über'
'x_'
'violence_'
'vergangenen_'
'ungs'
'under'
'training_'
'speak_'
'reforms_'
'reasons_'
'play_'
'might_'
'kind_'
'integration_'
'ina'
'ig_'
'hatte_'
'growth_'
'gleichzeitig_'
'gestellt_'
'dialogue_'
'develop_'
'decided_'
'control_'
'concern_'
'changes_'
'ber'
'bekannt_'
'available_'
'When_'
'Ver'
'Ukraine_'
'September_'
'Rück'
'L'
'Gelegenheit_'
'Erweiterung_'
'Constitution_'
'Bo'
'Bereichen_'
'Behörden_'
'Allerdings_'
'" _'
'unserem_'
'tu'
'thus_'
'ted_'
'step_'
'special_'
'several_'
'relation_'
'principles_'
'nothing_'
'moment_'
'meines_'
'lo'
'len_'
'item_'
'ische_'
'instrument_'
'immigration_'
'illegal_'
'ihrem_'
'ihn_'
'ihm_'
'hätten_'
'hin_'
'excellent_'
'eben_'
'cultural_'
'closed_'
'cal_'
'bar_'
'aus'
'ated_'
'answer_'
'Schritt_'
'P_'
'Let_'
'Erachtens_'
'Ein'
'Dieser_'
'Demokratie_'
'Da_'
'Co'
'50_'
'vielen_'
'sustainable_'
'significant_'
'red_'
'private_'
'practice_'
'ngen_'
'model_'
'military_'
'markets_'
'ma'
'investment_'
'increased_'
'include_'
'ht_'
'global_'
'genau_'
'geführt_'
'final_'
'ever_'
'either_'
'developing_'
'costs_'
'comes_'
'bo'
'bleiben_'
'auszu'
'ations_'
'ar_'
'ance_'
'amount_'
'agenda_'
'Sa'
'Programm_'
'Prodi_'
'Für_'
'Fa'
'Energie'
'Dank_'
'25_'
' " _'
'week_'
'ure_'
'true_'
'to'
'teil'
'systems_'
'ste_'
'solution_'
'seems_'
'representatives_'
'pro'
'perhaps_'
'nuclear_'
'months_'
'mind_'
'man'
'macht_'
'local_'
'lediglich_'
'kan'
'guten_'
'gute_'
'gi'
'funding_'
'folgt_'
'fishing_'
'equal_'
'denke_'
'conclusion_'
'colleagues_'
'children_'
'accession_'
'Tatsache_'
'Schaffung_'
'S_'
'Russland_'
'Reform_'
'N'
'Möglichkeiten_'
'Informationen_'
'Haushalts'
'Gebiet_'
'Ergebnisse_'
'Ergebnis_'
'Arbeits'
'ör'
' % _'
'zu'
'young_'
'wichtigsten_'
'vorgeschlagen_'
'unternehmen_'
'un'
'um'
'ti'
'tes_'
'statement_'
'schließlich_'
'sagte_'
'richtig_'
'recent_'
're'
'priority_'
'pleased_'
'off_'
'instruments_'
'ins_'
'ings_'
'held_'
'everything_'
'erst_'
'd'
'cy_'
'content_'
'consumers_'
'conflict_'
'commitment_'
'ci'
'cally_'
'border_'
'balance_'
'air_'
'actions_'
'act_'
'abge'
'Zugang_'
'Vorschriften_'
'Regierungen_'
'Rechts'
'Mitglieder_'
'Markt'
'Le'
'Kosovo_'
'Kampf_'
'Interessen_'
'Grenzen_'
'Gesundheit_'
'Forschung_'
'Entscheidungen_'
'Einigung_'
'East_'
'Damit_'
'8'
'2'
'ät_'
'zuge'
'wirtschaftliche_'
'weniger_'
'verhindern_'
'uf'
'tomorrow_'
'strategic_'
'statt_'
'se'
'saying_'
'rule_'
'nis_'
'muß_'
'move_'
'meinem_'
'live_'
'leider_'
'joint_'
'ise_'
'ho'
'gewährleisten_'
'gesamten_'
'fordern_'
'follow_'
'focus_'
'fast_'
'express_'
'erung_'
'enough_'
'date_'
'community_'
'civil_'
'chi'
'body_'
'addition_'
'add_'
'achieved_'
'Zum_'
'You_'
'With_'
'Vertrag_'
'Transparenz_'
'Therefore_'
'Themen_'
'Standpunkt_'
'Sicherheits'
'R'
'O_'
'November_'
'Nationen_'
'Mehrheit_'
'Lo'
'Handel_'
'Gesellschaft_'
'Furthermore_'
'Do'
'Bestimmungen_'
'Bemühungen_'
'Angelegenheiten_'
' -, _'
'ß_'
'Änderung_'
'zeit_'
'zeit'
'z'
'voting_'
'ver_'
'values_'
'ste'
'states_'
'stability_'
'spielen_'
'speech_'
'recht_'
'previous_'
'prepared_'
'poverty_'
'past_'
'nor_'
'ngs'
'negative_'
'ne'
'meet_'
'm'
'ls_'
'light_'
'li'
'le'
'k'
'implemented_'
'heard_'
'getan_'
'geschaffen_'
'gen'
'gemeinsam_'
'farmers_'
'ex'
'euro_'
'erforderlich_'
'ep'
'du'
'draw_'
'discussion_'
'ding_'
'di'
'delegation_'
'data_'
'currently_'
'crisis_'
'cost_'
'consumer_'
'consequences_'
'compromise_'
'bereit_'
'begrüßen_'
'aufgenommen_'
'assessment_'
'an'
'almost_'
'activities_'
'absolutely_'
'W'
'Umwelt'
'Richtung_'
'One_'
'Notwendigkeit_'
'Leben_'
'Kompromiss_'
'Erfolg_'
'Einführung_'
'Beitritt_'
'Beitrag_'
'är'
'ß'
'ziehen_'
'zeigen_'
'whose_'
'wenig_'
'w'
'völlig_'
'verb'
'ur_'
'ur'
'until_'
'try_'
't'
'solidarity_'
'sogar_'
'sing_'
'short_'
'she_'
'road_'
'rie'
'requirements_'
'purpose_'
'promote_'
'practical_'
'plans_'
'note_'
'nd'
'namely_'
'nahme_'
'n'
'morgen_'
'mit'
'led_'
'la'
'job_'
'igkeit_'
'gel'
'führt_'
'etwa_'
'durchgeführt_'
'doubt_'
'da'
'creating_'
'communication_'
'carried_'
'capacity_'
'ban_'
'ausge'
'apply_'
'application_'
'ange'
'among_'
'although_'
'aim_'
'ag'
'adopt_'
'We'
'Verbindung_'
'US_'
'Solidarität_'
'Seite_'
'Präsidentschaft_'
'Nations_'
'Mitglied_'
'Maße_'
'January_'
'Iraq_'
'In'
'Haus_'
'Geld_'
'Freiheit_'
'F'
'EN_'
'Doch_'
'Diskussion_'
'Bürgern_'
'Berichte_'
'Armut_'
'Arbeitnehmer_'
'Ab'
'21_'
'02'
'ür'
'é'
'verfahren_'
'tragen_'
'tatsächlich_'
'strong_'
'reports_'
'remains_'
'regarding_'
'project_'
'pressure_'
'per_'
'parts_'
'participation_'
'ori'
'nutzen_'
'nimmt_'
'nature_'
'mention_'
'legen_'
'kleinen_'
'individual_'
'huge_'
'honourable_'
'heiten_'
'geschlossen_'
'gehört_'
'g'
'fisheries_'
'fen_'
'europäischer_'
'ermöglichen_'
'entwickeln_'
'ende_'
'early_'
'created_'
'comments_'
'circumstances_'
'bt_'
'basic_'
'b_'
'away_'
'aufzu'
'angesichts_'
'agriculture_'
'across_'
'Vor_'
'Vor'
'UK_'
'Steuer'
'Sorge_'
'Schließlich_'
'Ro'
'Präsidenten_'
'Policy_'
'Party_'
'PT_'
'Mitteilung_'
'Meine_'
'Mediterranean_'
'Man_'
'Kraft_'
'Justice_'
'Industrie_'
'Gewalt_'
'Gen'
'Euro'
'Erstens_'
'Beschäftigung_'
'Barroso_'
'. – _'
'ä'
'zusammen'
'zi'
'wohl_'
'wegen_'
'weder_'
'ways_'
'ver'
'value_'
'uti'
'using_'
'treffen_'
'ter'
'tax_'
'su'
'stimmen_'
'stage_'
'st'
'service_'
'rt_'
'response_'
'relating_'
'reduce_'
'reality_'
'raised_'
'qui'
'procedures_'
'priorities_'
'pre'
'pay_'
'outside_'
'os_'
'opportunities_'
'ni'
'movement_'
'leben_'
'ko'
'initiatives_'
'ig'
'ie'
'har'
'half_'
'h'
'guidelines_'
'gleich_'
'fa'
'events_'
'established_'
'erzielt_'
'enthalten_'
'dis'
'derzeit_'
'der'
'darstellt_'
'contribution_'
'conclude_'
'ck_'
'bestehen_'
'berücksichtigt_'
'ary_'
'akzeptieren_'
'agreed_'
'addressed_'
'ad'
'according_'
'Zu'
'Wettbewerb_'
'Vi'
'Verbesserung_'
'Stelle_'
'Se'
'Schwierigkeiten_'
'Res'
'Regulation_'
'Ra'
'Pa'
'Our_'
'Na'
'Ma'
'Jo'
'Internet_'
'Grund'
'Frankreich_'
'Dazu_'
'Conference_'
'Berichterstatterin_'
'Al'
'überzeugt_'
'Öffentlichkeit_'
'zurück'
'wären_'
'wa'
'vorge'
'tell_'
'task_'
'takes_'
'structural_'
'soon_'
'show_'
'schützen_'
's'
'ri'
'review_'
'required_'
'reduction_'
'precisely_'
'personal_'
'organisations_'
'organisation_'
'no'
'ning_'
'nen'
'nce_'
'meinen_'
'lu'
'llen_'
'll_'
'ling_'
'labour_'
'jeden_'
'insgesamt_'
'improving_'
'ien_'
'hn'
'highly_'
'go'
'gestimmt_'
'genuine_'
'external_'
'extent_'
'expressed_'
'et'
'ess_'
'ens_'
'emphasise_'
'ei'
'effectively_'
'ef'
'ea'
'discussed_'
'directives_'
'despite_'
'demokratischen_'
'completely_'
'climate_'
'cht_'
'borders_'
'as'
'anderer_'
'Zweitens_'
'Zahl_'
'Wirtschafts'
'Welt'
'Tat_'
'Security_'
'Regeln_'
'Rechtsvorschriften_'
'Punkte_'
'Organisation_'
'Ne'
'K'
'Italian_'
'Iran_'
'H'
'Geschäftsordnung_'
'Germany_'
'Finanzierung_'
'FR_'
'Dinge_'
'Dieses_'
'Daher_'
'Berichts_'
';_'
':_'
'100_'
'00_'
'übernehmen_'
'über'
'we'
'unge'
'ts'
'treatment_'
'tra'
'ties_'
'technical_'
'stets_'
'sense_'
'ro'
'risks_'
'request_'
'reg'
'reached_'
'ra'
'protect_'
'population_'
'poor_'
'nde'
'monitoring_'
'list_'
'language_'
'ks_'
'j'
'hold_'
'hl'
'hinsichtlich_'
'hen'
'hard_'
'handeln_'
'gleichen_'
'giving_'
'gh'
'ger_'
'five_'
'fi'
'fellow_'
'existing_'
'etzung_'
'establish_'
'erste_'
'erklärt_'
'ens'
'encourage_'
'einzu'
'einge'
'eindeutig_'
'effort_'
'effects_'
'directly_'
'darstellen_'
'dadurch_'
'creation_'
'colleague_'
'businesses_'
'budgetary_'
'bewusst_'
'benefit_'
'behind_'
'beg'
'all'
'agen_'
'active_'
'Zustimmung_'
'Zu_'
'World_'
'Vielfalt_'
'Thank_'
'Text_'
'Su'
'Spanish_'
'Some_'
'Social_'
'Republic_'
'Regelung_'
'Pro'
'Personen_'
'Instrument_'
'II_'
'He_'
'Gemeinsamen_'
'Frieden_'
'French_'
'E_'
'Druck_'
'Deutschland_'
'Democrats_'
'Beihilfen_'
'Bei'
'Aufmerksamkeit_'
'Annahme_'
'16_'
'03'
'Änderungen_'
'zen_'
'zehn_'
'writing_'
'wichtiger_'
'ven_'
'up'
'tru'
'sta'
'spe'
'so'
'side_'
'seinem_'
'reference_'
'recognise_'
'reach_'
'produce_'
'pp'
'per'
'party_'
'parliaments_'
'or'
'oli'
'old_'
'offen_'
'obwohl_'
'möchten_'
'mor'
'lives_'
'liegen_'
'join_'
'instead_'
'industrial_'
'hol'
'hi'
'hear_'
'hatten_'
'gs_'
'gra'
'genannten_'
'gekommen_'
'forms_'
'fest_'
'fair_'
'face_'
'ern'
'erfüllen_'
'entsprechenden_'
'ely_'
'elle_'
'ehen_'
'ds_'
'difficulties_'
'denken_'
'demands_'
'demand_'
'defence_'
'criteria_'
'combating_'
'ck'
'ch'
'ces_'
'care_'
'car'
'bodies_'
'bar'
'außerordentlich_'
'auf'
'at'
'applied_'
'and'
'al'
'ag_'
'Reihe_'
'Programme_'
'Prioritäten_'
'People_'
'Pe'
'Investitionen_'
'Informations'
'Gründen_'
'Fi'
'Entwicklungs'
'December_'
'Daten_'
'Binnenmarkt_'
'Bank_'
'Ba'
'B_'
'Aus'
'April_'
'Ansatz_'
'Ad'
'7'
'. (_'
'ück'
'ändern_'
'vorzu'
'vital_'
've'
'turn_'
'trust_'
'tri'
'treten_'
'took_'
'times_'
'talking_'
'successful_'
'substances_'
'strengthen_'
'status_'
'ssi'
'six_'
'sitting_'
'share_'
'sh_'
'self_'
'schnell_'
'sche'
'ring_'
'regulations_'
'refer_'
'receive_'
'rd'
'prices_'
'police_'
'partner_'
'paid_'
'opening_'
'ner_'
'mo'
'minimum_'
'lösen_'
'länder_'
'lot_'
'left_'
'laid_'
'lack_'
'l'
'known_'
'ki'
'keep_'
'justice_'
'increasingly_'
'included_'
'ie_'
'ib'
'hören_'
'hinweisen_'
'ha'
'gu'
'geschehen_'
'gab_'
'fördern_'
'freue_'
'fort'
'failure_'
'event_'
'etzen_'
'erster_'
'erneut_'
'emissions_'
'duty_'
'dringend_'
'document_'
'developments_'
'des'
'debates_'
'coming_'
'cing_'
'cher_'
'business_'
'bu'
'bleibt_'
'billion_'
'best'
'besch'
'bes'
'beitragen_'
'begin_'
'approved_'
'anti_'
'ant_'
'animals_'
'affected_'
'address_'
'achten_'
'accordance_'
'a'
'Zweifel_'
'Ziffer_'
'Woche_'
'Wo'
'Werte_'
'Um_'
'Staat_'
'Sch'
'Sache_'
'Privat'
'Position_'
'Palestinian_'
'Opfer_'
'Ob'
'Mit'
'Milliarden_'
'Meiner_'
'Markt_'
'Liberalisierung_'
'Landes_'
'June_'
'Ireland_'
'Groß'
'Gr'
'Gesamt'
'Europeans_'
'Du'
'Dimension_'
'Development_'
'British_'
'Bildung_'
'Beginn_'
'All_'
'Africa_'
'18_'
'.)_'
'.'
'wo'
'wert'
'weise_'
'vorgelegt_'
'voll_'
'views_'
'ves_'
'versuchen_'
'verbessern_'
'veran'
'umgesetzt_'
'transparency_'
'tischen_'
'throughout_'
'tal'
'table_'
'supported_'
'sub'
'stop_'
'sorgen_'
'sometimes_'
'sm'
'similar_'
'setzt_'
'sed_'
'scheme_'
'schaft_'
'rs'
'res_'
'reading_'
'rea'
'rate_'
'r'
'quote_'
'pri'
'ow'
'ourselves_'
'op'
'onen_'
'obviously_'
'ns'
'mus_'
'mon'
'lis'
'knowledge_'
'keiten_'
'ität_'
'ir'
'intended_'
'im'
'ied_'
'großer_'
'ground_'
'ging_'
'ger'
'gefunden_'
'frei'
'for'
'f'
'experience_'
'eu'
'eri'
'ere_'
'ele'
'den'
'culture_'
'criminal_'
'consultation_'
'consensus_'
'confidence_'
'complete_'
'caused_'
'brought_'
'beschlossen_'
'bek'
'bei'
'außerhalb_'
'asylum_'
'anzu'
'ak'
'Wachstum_'
'Vereinten_'
'Turkish_'
'Sta'
'PPE_'
'Of_'
'No'
'Me'
'Mal_'
'Kriterien_'
'Konvent_'
'Juni_'
'Ja'
'International_'
'Ho'
'Grundrechte_'
'Firstly_'
'Economic_'
'Dezember_'
'De'
'Dabei_'
'Außerdem_'
'Aspekt_'
'An'
'Afghanistan_'
'Abschluss_'
'Abgeordnete_'
'80_'
'6'
'23_'
'2008_'
'13_'
'y'
'wrong_'
'wobei_'
'waste_'
'wants_'
'w_'
'ving_'
'vertreten_'
'verschiedene_'
'verfügen_'
'va'
'v'
'urge_'
'unternommen_'
'uner'
'trägt_'
'trotz_'
'transparent_'
'thought_'
'th'
'tan'
'talk_'
'ta'
'stated_'
'specifically_'
'solchen_'
'sieht_'
'sen'
'scha'
'responsibilities_'
'putting_'
'promotion_'
'promoting_'
'product_'
'presence_'
'practices_'
'pen'
'pan'
'package_'
'out'
'ory_'
'oil_'
'od'
'oc'
'ob'
'not'
'na'
'mis'
'method_'
'meisten_'
'mein_'
'lä'
'lle_'
'lichkeit_'
'liberalisation_'
'konkrete_'
'kla'
'ke'
'ka'
'it'
'introduce_'
'independent_'
'increasing_'
'income_'
'ility_'
'icht_'
'hu'
'happen_'
'gezeigt_'
'getroffen_'
'gern_'
'gerecht_'
'gar_'
'fünf_'
'flo'
'findet_'
'extend_'
'expenditure_'
'expect_'
'establishing_'
'erwarten_'
'erklären_'
'entscheiden_'
'endlich_'
'ellen_'
'eli'
'ein'
'eher_'
'discussions_'
'discuss_'
'developed_'
'defend_'
'dangerous_'
'crucial_'
'considered_'
'concept_'
'complex_'
'combat_'
'century_'
'cation_'
'carry_'
'candidate_'
'bri'
'bitte_'
'bisher_'
'bil'
'bestimmten_'
'berücksichtigen_'
'benefits_'
'ben'
'bef'
'authority_'
'ari'
'age'
'Zunächst_'
'Ze'
'Wettbewerbsfähigkeit_'
'Wei'
'Vielleicht_'
'Vertreter_'
'Versch'
'Verkehrs'
'Vereinbarung_'
'Sol'
'Sicht_'
'Seiten_'
'Ressourcen_'
'Ratsvorsitz_'
'Qualität_'
'Prozesses_'
'Prozess_'
'Poland_'
'Märkte_'
'Middle_'
'Linie_'
'Lebens'
'Lassen_'
'Innovation_'
'Human_'
'How_'
'German_'
'Gefahr_'
'Geb'
'Forschungs'
'Forderung_'
'Fisch'
'Even_'
'Eisenbahn'
'Einrichtung_'
'EC_'
'Charta_'
'C5_'
'Bef'
'Be'
'Aspekte_'
'Angesichts_'
'Amendments_'
'Agreement_'
'3'
'üh'
'zudem_'
'zeigt_'
'yesterday_'
'war'
'ura'
'une'
'unbedingt_'
'unacceptable_'
'ug'
'uen'
'tt'
'tro'
'stärker_'
'statements_'
'speed_'
'sign_'
'ser'
'schwierig_'
'scheint_'
'rä'
'rung_'
'require_'
'recently_'
'received_'
'provision_'
'proper_'
'produced_'
'prevention_'
'potential_'
'po'
'pi'
'partnership_'
'parliamentary_'
'paragraph_'
'ot_'
'opposition_'
'olitik_'
'o'
'nk'
'networks_'
'ned_'
'name_'
'multi'
'mu'
'mittel_'
'medium_'
'mal'
'lten_'
'lt'
'lose_'
'living_'
'ler'
'ku'
'ker'
'ke_'
'invest'
'inde'
'i'
'hohen_'
'globalisation_'
'geleistet_'
'gehören_'
'gebracht_'
'fu'
'ft'
'firstly_'
'feststellen_'
'fe'
'falls_'
'fallen_'
'eten_'
'entspricht_'
'enable_'
'efficiency_'
'dt_'
'do'
'declaration_'
'dar'
'danke_'
'cu'
'cross_'
'crime_'
'connection_'
'competitiveness_'
'comment_'
'cke'
'chte_'
'cht'
'c'
'building_'
'bra'
'board_'
'bessere_'
'behandelt_'
'beginning_'
'balanced_'
'avoid_'
'au'
'around_'
'arms_'
'allowed_'
'accepted_'
'ac'
'Wasser'
'Von_'
'Volks'
'Volk_'
'V'
'Teil'
'Stärkung_'
'Straf'
'Stellungnahme_'
'Spain_'
'So'
'Si'
'San'
'Russian_'
'Ri'
'Republik_'
'Raum_'
'Ratspräsidentschaft_'
'Nur_'
'Nun_'
'Medi'
'March_'
'MEPs_'
'Lösungen_'
'Königreich_'
'Konzept_'
'Integration_'
'Initiativen_'
'Hinsicht_'
'Haushalt_'
'Hand_'
'Haltung_'
'Globalisierung_'
'Gesundheits'
'General_'
'Forum_'
'Energie_'
'Drittens_'
'Del'
'Cha'
'Betr'
'Antrag_'
'Anti'
'Anfrage_'
'All'
'Abschließend_'
'60_'
'27_'
'14_'
'00'
'öt'
'öffentliche_'
' – _'
'zustimmen_'
'zurückge'
'zunächst_'
'ying_'
'xi'
'wi'
'weltweit_'
'weit'
'wanted_'
'vo'
'verk'
'verehrte_'
'us'
'unter'
'uns'
'umzusetzen_'
'umfassenden_'
'ul'
'ub'
'tät_'
'type_'
'trans'
'traditional_'
'tions_'
'thousands_'
'territory_'
'te'
'summit_'
'sugar_'
'stu'
'stress_'
'sto'
'ster'
'stark_'
'sst'
'solutions_'
'sk'
'sicherzustellen_'
'send_'
'sektor_'
'seines_'
'seek_'
'see'
'secure_'
'sectors_'
'sechs_'
'schriftlich_'
'says_'
'sa'
'rou'
'ris'
'richten_'
'respond_'
'reply_'
'remind_'
'regime_'
'reflect_'
'reducing_'
'rates_'
'prüfen_'
'price_'
'presidency_'
'politischer_'
'planning_'
'places_'
'pla'
'perspective_'
'personally_'
'pe'
'partners_'
'ou'
'ordnung_'
'nächste_'
'nz_'
'nung_'
'nu'
'nom'
'ng'
'nf'
'nations_'
'nachhaltige_'
'myself_'
'motion_'
'modern_'
'mission_'
'me'
'mal_'
'lung_'
'lli'
'les_'
'ks'
'kl'
'ken_'
'keits'
'keinerlei_'
'keeping_'
'jedes_'
'jeder_'
'internationale_'
'inne'
'infrastructure_'
'implementing_'
'implement_'
'ierten_'
'ic'
'home_'
'granted_'
'goes_'
'gleiche_'
'gives_'
'ght_'
'gesetzt_'
'gesch'
'geb'
'ge'
'four_'
'found_'
'fordert_'
'forces_'
'folgen_'
'flexibility_'
'fas'
'extension_'
'exist_'
'exchange_'
'ers'
'erl'
'equality_'
'entsch'
'endorse_'
'einiger_'
'eingehen_'
'eh'
'dro'
'diskutieren_'
'dennoch_'
'dealing_'
'damage_'
'cover_'
'commitments_'
'cohesion_'
'co_'
'cit'
'cha'
'cause_'
'briefly_'
'bezüglich_'
'bestimmte_'
'bereit'
'bel'
'ba'
'anything_'
'ante'
'ans'
'animal_'
'angesprochen_'
'alone_'
'Zeitpunkt_'
'Zeit'
'Währung_'
'Wi'
'Verfügung_'
'Verbraucher'
'UN'
'Terror'
'Te'
'Tag_'
'Summit_'
'Spanien_'
'Sitzung_'
'Sinne_'
'Sie'
'Rechts_'
'Protokoll_'
'Produkt'
'Portugal_'
'Only_'
'Neu'
'Nach'
'Mo'
'Mitteln_'
'Ministers_'
'Li'
'Landwirtschaft_'
'Kontrolle_'
'Justiz_'
'Irland_'
'Her'
'Gemeinschafts'
'Ga'
'Foreign_'
'Fe'
'F_'
'Environment_'
'Entwurf_'
'Darüber_'
'Central_'
'Brüssel_'
'Beschluss_'
'Asyl'
'Ar'
'Anstrengungen_'
'Am'
'Agrar'
'29_'
'19_'
'198'
'überhaupt_'
'ü'
'äu'
'Überwachung_'
'Übereinstimmung_'
'zweite_'
'zug'
'zin'
'win'
'weapons_'
'vorgesehenen_'
'vier_'
'victims_'
'versucht_'
'verstehen_'
'verst'
'vermeiden_'
'verfügt_'
'uch'
'ua'
'threat_'
'sti'
'speaking_'
'sound_'
'sion_'
'signed_'
'shows_'
'seitens_'
'sch'
'scale_'
'san'
'ru'
'rt'
'rk'
'richtlinie_'
'richtige_'
'rh'
'return_'
'restrictions_'
'related_'
'ps_'
'proposing_'
'possibility_'
'pal'
'ond'
'official_'
'offen'
'occasions_'
'nten_'
'neuer_'
'ness_'
'nennen_'
'nds_'
'möglichen_'
'miss'
'minister_'
'mehr'
'media_'
'medi'
'mb'
'managed_'
'lt_'
'ls'
'looking_'
'ln_'
'lle'
'lit'
'lines_'
'lie'
'letzte_'
'later_'
'kurz_'
'kt_'
'konnten_'
'je'
'iss'
'irre'
'indi'
'ichten_'
'icher'
'hält_'
'heraus'
'helping_'
'gramm'
'gewährleistet_'
'gef'
'führung_'
'freie_'
'frage_'
'frag'
'financing_'
'farming_'
'family_'
'expression_'
'es'
'err'
'entsprechende_'
'enti'
'enthält_'
'enen_'
'end'
'emphasis_'
'ee'
'documents_'
'detailed_'
'constitutional_'
'consideration_'
'considerable_'
'close_'
'challenges_'
'build_'
'broad_'
'bre'
'bietet_'
'besten_'
'besondere_'
'bene'
'befinden_'
'bed'
'aufge'
'ati'
'angeht_'
'ali'
'adoption_'
'administration_'
'adapt'
'actual_'
'abgeschlossen_'
'Z'
'Wir'
'Why_'
'Wettbewerbs'
'Warum_'
'Wahl'
'Vorschlägen_'
'Vorbe'
'Voraussetzungen_'
'Verwendung_'
'Vertrauen_'
'Verpflichtungen_'
'Um'
'Uhr_'
'Today_'
'To'
'Tier'
'T_'
'Ste'
'Standards_'
'South_'
'Sonder'
'Selbst'
'Sektor_'
'Regierungskonferenz_'
'Regelungen_'
'Public_'
'Pu'
'Prä'
'PSE_'
'Nos_'
'Nice_'
'Mus'
'Mor'
'Mitgliedstaat_'
'Methode_'
'Mehr'
'Mar'
'Mai_'
'M_'
'Leider_'
'Krise_'
'Krieg_'
'Kenntnis_'
'Jahres'
'Irish_'
'Information_'
'Indeed_'
'Ihrer_'
'Handels'
'Greek_'
'Gegenteil_'
'Fra'
'Fischerei'
'Financial_'
'Einsatz_'
'Eindruck_'
'Chance_'
'Bürger'
'Budget_'
'Beschlüsse_'
'Bereiche_'
'Beispiele_'
'B5_'
'Aktivitäten_'
'Agenda_'
'Afrika_'
'17_'
'', _'
'ände_'
'zwei'
'zusätzliche_'
'xe'
'work'
'wirtschaft_'
'wind'
'wie'
'werk'
'weis'
'wealth_'
'wahrscheinlich_'
'wahr'
'vorher'
'vorgeschlagenen_'
'vit'
'vergessen_'
'verd'
'urgent_'
'unemployment_'
'unden_'
'unc'
'ufen_'
'trying_'
'tor'
'ton'
'thanks_'
'ten'
'tel'
'tasks_'
'supporting_'
'stri'
'spr'
'spo'
'sort_'
'sor'
'sis'
'selbstverständlich_'
'sel'
'scope_'
'schutz_'
'sage_'
'rural_'
'richt'
'ria'
'rg'
'remember_'
'relationship_'
'rel'
'referred_'
'reco'
'rapporteurs_'
'providing_'
'provides_'
'pli'
'plenary_'
'organised_'
'ore'
'opinions_'
'one'
'obs'
'nts_'
'nta'
'nic'
'naturally_'
'natural_'
'mutual_'
'month_'
'migration_'
'message_'
'merely_'
'mer'
'men'
'mag'
'linked_'
'leisten_'
'leaders_'
'lange_'
'kulturellen_'
'ked_'
'ismus_'
'ised_'
'int'
'influence_'
'improvements_'
'il_'
'il'
'ial_'
'ht'
'hours_'
'history_'
'hilfe_'
'happened_'
'größte_'
'grateful_'
'goods_'
'gleich'
'glauben_'
'gewesen_'
'getting_'
'gesprochen_'
'gesamte_'
'gerichtet_'
'gek'
'gegenwärtig_'
'geg'
'gan'
'fore'
'ffe'
'fat'
'fall_'
'export_'
'examples_'
'evidence_'
'erz'
'erfolgen_'
'erb'
'entsprechend_'
'ensuring_'
'enge'
'eigentlich_'
'efficient_'
'e'
'durchaus_'
'ds'
'dra'
'dit'
'discussing_'
'direct_'
'dimension_'
'diejenigen_'
'dic'
'desire_'
'deserves_'
'death_'
'coordination_'
'controls_'
'confirmed_'
'conf'
'char'
'britischen_'
'bitten_'
'bevor_'
'besseren_'
'bereich_'
'bear_'
'ausgezeichneten_'
'ausgewogene'
'aufzunehmen_'
'ast'
'assistance_'
'are'
'appreciate_'
'apart_'
'ap'
'angen_'
'ang_'
'alten_'
'alle'
'ality_'
'aimed_'
'ahead_'
'agt_'
'aff'
'adv'
'administrative_'
'added_'
'acce'
'Worten_'
'Wieder'
'Weiter'
'Wahl_'
'Völker_'
'Vorausschau_'
'Voll'
'Verpflichtung_'
'Verkehr_'
'Vergangenheit_'
'V_'
'Strukturfonds_'
'Stimme_'
'Spe'
'Sorgen_'
'Seit_'
'Richtlinien_'
'R_'
'Polen_'
'Parteien_'
'Or'
'Now_'
'Mü'
'Miss'
'Lebensmittel'
'Konvents_'
'Italy_'
'Instrumente_'
'Grunde_'
'Gerichtshof_'
'Gebieten_'
'Fällen_'
'Forderungen_'
'For'
'Fo'
'Erklärungen_'
'Entschließungsantrag_'
'Engagement_'
'Durchführung_'
'Dr'
'Den_'
'Delegation_'
'Da'
'D_'
'Charter_'
'Cas'
'Car'
'Bildungs'
'Belarus_'
'Bea'
'Barcelona_'
'Bal'
'Ausgaben_'
'Augen_'
'Auf'
'Arbeitsplätze_'
'70_'
'4'
'28_'
'2013_'
'2010_'
'01'
'0'
'-, _'
' _'
'äge_'
'ßt_'
'zweiten_'
'zus'
'zieren_'
'zeug'
'zahlreichen_'
'you'
'ya'
'wünschen_'
'wä'
'word_'
'wor'
'wollte_'
'vorliegenden_'
'vorgesehen_'
'voluntary_'
'vision_'
'verg'
'ut_'
'ut'
'unver'
'unterstütze_'
'unfortunately_'
'unbe'
'uer'
'ual_'
'tä'
'tre'
'trag'
'ther'
'tet_'
'teri'
'sufficient_'
'suffering_'
'submitted_'
'ständig_'
'sts_'
'ssen_'
'sp'
'sozial'
'situations_'
'short'
'ses_'
'serve_'
'sea_'
'scr'
'scientific_'
'schwierigen_'
'rre'
'rge'
'ret'
'rest_'
'rem'
'relevant_'
'regret_'
'rech'
'ran'
'raise_'
'profit_'
'probably_'
'press_'
'precise_'
'pos'
'ports_'
'para'
'par'
'ought_'
'os'
'oral_'
'ol'
'obligations_'
'nie_'
'nh'
'nge'
'neu_'
'network_'
'nder'
'nat'
'morning_'
'mini'
'met_'
'mer_'
'mati'
'mate'
'manner_'
'low_'
'lin'
'limits_'
'lic'
'ler_'
'lau'
'konnte_'
'kommenden_'
'ja'
'iv'
'introduced_'
'innen_'
'ine_'
'ill'
'ier'
'ideas_'
'ici'
'häufig_'
'hy'
'humanitarian_'
'highlight_'
'higher_'
'hei'
'growing_'
'goals_'
'gewi'
'gest'
'ges'
'generation_'
'gas_'
'gar'
'fund_'
'ft_'
'felt_'
'fe_'
'failed_'
'explain_'
'eti'
'establishment_'
'ero'
'ernst_'
'era'
'er'
'equally_'
'empf'
'emi'
'einsetzen_'
'eil'
'durch'
'divided_'
'diversity_'
'dier'
'definition_'
'decide_'
'de'
'cur'
'criticism_'
'count'
'contributions_'
'continent_'
'contains_'
'considering_'
'conclusions_'
'competitive_'
'cken_'
'chtig'
'cher'
'challenge_'
'carefully_'
'campaign_'
'ble'
'bit'
'bio'
'bieten_'
'beyond_'
'betr'
'behörde_'
'bald_'
'aut'
'ausschuss_'
'auss'
'ausdrücklich_'
'atz'
'asking_'
'arti'
'arbeitet_'
'appropriations_'
'anti'
'ans_'
'anf'
'andererseits_'
'ake'
'ain'
'ages_'
'afternoon_'
'acceptable_'
'abges'
'Zuständigkeit_'
'Zudem_'
'Zeiten_'
'Worte_'
'Wald'
'Waffen_'
'Treaties_'
'Trans'
'Trade_'
'The'
'Tagen_'
'Stre'
'Strasbourg_'
'Stellung_'
'Stabilität_'
'Schwe'
'Schlüssel'
'Schlussfolgerungen_'
'Scha'
'Report_'
'Regional_'
'Reformen_'
'Rede_'
'Rahmen'
'Produktions'
'Priorität_'
'Post'
'Politiken_'
'Politik'
'Partei_'
'Organisationen_'
'Nutzung_'
'Nu'
'Nr_'
'Ni'
'N_'
'Monaten_'
'May_'
'Ladies_'
'Kultur_'
'Krankheiten_'
'Kon'
'Ka'
'Industrie'
'Hier_'
'Herausforderungen_'
'Health_'
'Haupt'
'Grenz'
'Gleichzeitig_'
'Gesetzgebung_'
'Gesch'
'Fu'
'Folgen_'
'Fischerei_'
'First_'
'Ferner_'
'Et'
'Erfahrungen_'
'Einwanderung_'
'Christian_'
'Bürgerinnen_'
'Bewertung_'
'Bemerkungen_'
'Auss'
'Ans'
'Angelegenheit_'
'Amsterdam_'
'Agentur_'
'Absicht_'
'Abs'
'Abend_'
'? _'
': "_'
'1998_'
'’._'
'üt'
'üg'
'í'
'Übereinkommen_'
'Ä'
'zumindest_'
'zone_'
'ziel'
'wide_'
'whom_'
'wesentliche_'
'wer'
'weg'
'votes_'
'vorlegen_'
'via'
'verwendet_'
'vertr'
'verfolgt_'
'verbessert_'
'van_'
'val'
'ute_'
'uta'
'ures_'
'unseres_'
'unf'
'unable_'
'una'
'ultimately_'
'tto'
'tried_'
'treated_'
'total_'
'tic'
'terrorist_'
'tar'
'sver'
'suggest_'
'subs'
'steps_'
'spro'
'spirit_'
'sized_'
'sit'
'simple_'
'signal_'
'sig'
'sicherlich_'
'shown_'
'shared_'
'sf'
'setting_'
'sensitive_'
'seeking_'
'sal'
'roc'
'rn'
'rm'
'rke'
'riffen_'
'resolve_'
'resolutions_'
'requires_'
'remarks_'
'rei'
'refu'
'rec'
'reaching_'
'ras'
'qua'
'propose_'
'prinzip_'
'ping_'
'pie'
'phase_'
'persönlich_'
'persons_'
'paper_'
'overall_'
'over'
'outcome_'
'our'
'ose_'
'ord'
'oni'
'nisse_'
'neg'
'ndi'
'nda'
'national'
'müssten_'
'mp'
'mi'
'member_'
'medicines_'
'mechanisms_'
'maßnahmen_'
'maintain_'
'mainly_'
'länger_'
'lower_'
'limited_'
'limit_'
'licherweise_'
'legislat'
'leave_'
'leading_'
'ld_'
'latter_'
'lang'
'lands_'
'lagen_'
'künftige_'
'konzentrieren_'
'klar'
'jede_'
'ion'
'involve_'
'introduction_'
'interesting_'
'ing'
'imp'
'ihres_'
'igung_'
'igt_'
'ica'
'helfen_'
'hea'
'happy_'
'größere_'
'gl'
'gewa'
'gestern_'
'gender_'
'gemäß_'
'gefordert_'
'ga'
'freiheit_'
'forum_'
'forced_'
'ffen_'
'ff'
'festgestellt_'
'fer'
'facing_'
'ex_'
'ew'
'eter'
'est'
'essi'
'ert'
'ermöglicht_'
'erm'
'erinnern_'
'erin'
'erh'
'ergreifen_'
'erg'
'erfahren_'
'enz'
'enter_'
'elements_'
'einerseits_'
'eind'
'einb'
'eich'
'effiziente'
'don'
'direction_'
'destruction_'
'derzeitigen_'
'degree_'
'ded_'
'dagegen_'
'critical_'
'convinced_'
'continuing_'
'conflicts_'
'confirm_'
'committed_'
'codecision_'
'closer_'
'chn'
'cent_'
'cau'
'bringt_'
'bringing_'
'betreffen_'
'bemüht_'
'bela'
'bekommen_'
'beglückwünschen_'
'bege'
'bedingungen_'
'bare_'
'ausgesprochen_'
'attitude_'
'assure_'
'annual_'
'ann'
'ank'
'amerikanischen_'
'am'
'alternative_'
'ai'
'af'
'ack'
'ability_'
'abhäng'
'Zivil'
'Zeitraum_'
'Yet_'
'Y'
'Western_'
'War'
'Wahlen_'
'Vo'
'Verwaltungs'
'Verwaltung_'
'Verträge_'
'Unter_'
'Unsere_'
'Umständen_'
'Umst'
'Tri'
'Swedish_'
'Strategy_'
'Sti'
'Schul'
'Schluss_'
'Rechnung_'
'Projekt_'
'Po'
'Paper_'
'Pact_'
'Organe_'
'Nein_'
'Natürlich_'
'Mindest'
'Mil'
'Mi'
'Menschenhandel_'
'Menschen'
'Liste_'
'Landwirte_'
'Konflikt_'
'Konferenz_'
'Kindern_'
'July_'
'Irak_'
'IC'
'Hin'
'Herausforderung_'
'He'
'Ha'
'Grünbuch_'
'Gra'
'Gerichts'
'Friedens'
'Fortschritt_'
'Flug'
'Fl'
'Fehler_'
'EG_'
'Budgets_'
'Brok_'
'Besuch_'
'Beschäftigungs'
'Beitritts'
'Beh'
'Balkans_'
'Austria_'
'Aussch'
'Ausnahme'
'Arm'
'Anstieg_'
'America_'
'Ag'
'AIDS_'
'90_'
'5'
'40_'
'31_'
'24_'
'20'
'19'
'10'
''._'
' -_'
'ös'
'öl'
'äten_'
'Übrigen_'
'Öl'
'zusammen_'
'zurück_'
'zuletzt_'
'zufolge_'
'ze_'
'za'
'ym'
'yl'
'ye'
'wünsche_'
'wr'
'wirtschaftlicher_'
'wirksam_'
'wider_'
'wide'
'wesentlichen_'
'weltweiten_'
'weiteren_'
'weiter'
'wal'
'visit_'
'vis'
'vig'
'versch'
'verm'
'verkehr_'
'verfolgen_'
'verdient_'
'v_'
'useful_'
'urs'
'untersch'
'unit'
'uni'
'ungsa'
'umge'
'ult'
'ui'
'ug_'
'traffic_'
'tionen_'
'tim'
'thr'
'the'
'tests_'
'teilen_'
'technology_'
'tand'
'supplementary_'
'sung'
'suchen_'
'subsidies_'
'stärken_'
'stre'
'strategies_'
'strategie_'
'straf'
'stell'
'star'
'stand'
'staff_'
'ss'
'spread_'
'spoke_'
'spending_'
'speakers_'
'spa'
'somit_'
'smus_'
'sim'
'sides_'
'sent_'
'scho'
'schließen_'
'schl'
'sation_'
'sanctions_'
'sagt_'
'safe_'
'run_'
'rsch'
'rma'
'rise_'
'ring'
'rig'
'representative_'
'remi'
'rejected_'
'redu'
'rechts'
'rapid_'
'que_'
'prä'
'profits_'
'producers_'
'prefer'
'please_'
'planned_'
'plane'
'person'
'permanent_'
'payment_'
'patent'
'participate_'
'p'
'ously_'
'ou_'
'oren_'
'ones_'
'ole'
'og'
'offer_'
'oa'
'nt'
'nochmals_'
'nn'
'nitt'
'nationaler_'
'mut'
'mus'
'ms_'
'miteinander_'
'mehrere_'
'mechanism_'
'mar'
'mach'
'lost_'
'los_'
'link_'
'legt_'
'late_'
'lan'
'konf'
'ker_'
'jüngsten_'
'justified_'
'judge'
'jene_'
'iz'
'iti'
'ist'
'isierung_'
'isier'
'irk'
'interested_'
'intention_'
'insurance_'
'institutional_'
'ini'
'includes_'
'improved_'
'impossible_'
'impe'
'immt_'
'immigrants_'
'ile_'
'iff'
'ide'
'id'
'hte'
'holding_'
'hle'
'hilf'
'hem'
'gung_'
'guaranteed_'
'granting_'
'goal_'
'gla'
'gezwungen_'
'gewo'
'gewinnen_'
'gesp'
'gemein'
'gelten_'
'gat'
'ganzen_'
'gang_'
'fung'
'freien_'
'forthcoming_'
'followed_'
'floor_'
'flexible_'
'finally_'
'ferner_'
'fac'
'eye_'
'exactly_'
'everyone_'
'erzielen_'
'erte'
'erklär'
'ergeben_'
'erforderlichen_'
'entwicklung_'
'entwickelt_'
'enterprises_'
'eng'
'enforce'
'ene_'
'ene'
'ence_'
'employees_'
'else_'
'ell_'
'ell'
'einschließlich_'
'einheitlichen_'
'eing'
'eder'
'ed'
'eb'
'earlier_'
'ear'
'dl'
'discrimination_'
'disa'
'direkte'
'ding'
'differ'
'delighted_'
'deli'
'defini'
'days_'
'dan'
'cut_'
'conference_'
'concluded_'
'conce'
'con'
'company_'
'comp'
'communications_'
'closely_'
'cki'
'cies_'
'changed_'
'came_'
'bürger'
'burg_'
'bul'
'big_'
'betroffen_'
'beide_'
'becoming_'
'bat'
'baren_'
'back'
'attempt_'
'associated_'
'asse'
'asi'
'arte'
'arkt'
'arise_'
'arbeit_'
'applying_'
'applies_'
'appe'
'ant'
'analysis_'
'ambition_'
'alis'
'aims_'
'affects_'
'ably_'
'Wesentlichen_'
'Vorbereitung_'
'Verha'
'Verfolgung_'
'Verb'
'Transport_'
'Tra'
'Ti'
'Th'
'Technologien_'
'Sweden_'
'Stu'
'Structural_'
'Straßburg_'
'Sto'
'Staates_'
'Spr'
'Since_'
'Signal_'
'Selbstverständlich_'
'See'
'Schäden_'
'Rules_'
'Ru'
'Reise'
'Reform'
'Referendum_'
'Que'
'Procedure_'
'Port'
'Poli'
'Patent'
'Partnerschaft_'
'Parlaments'
'PL_'
'October_'
'Nicht'
'Netz'
'Netherlands_'
'Natur'
'März_'
'Moreover_'
'Mittelmeer_'
'Minutes_'
'Mau'
'Man'
'Macht_'
'Leitlinien_'
'Leit'
'Lastly_'
'Laeken_'
'Labour_'
'Kyoto_'
'Kritik_'
'Krisen'
'Koordinierung_'
'Konze'
'Juli_'
'Ju'
'Infrastruktur'
'Hu'
'Hoffnung_'
'Grundsatz_'
'Gl'
'Gelder_'
'Ged'
'Ge'
'Fü'
'Funds_'
'Fund_'
'Frei'
'Formen_'
'Folge_'
'Fischler_'
'Finnish_'
'Festlegung_'
'Familie_'
'Export'
'Est'
'Entscheidungs'
'End'
'Empfehlungen_'
'Ebenso_'
'Dienstleistungs'
'Deswegen_'
'Denn_'
'Definition_'
'Declaration_'
'Cyprus_'
'Comp'
'Comm'
'Chamber_'
'Ca'
'Bor'
'Beweis_'
'Bew'
'Berücksichtigung_'
'Ber'
'Bemerkung_'
'Beifall_'
'Basis_'
'Balkan_'
'Ausführungen_'
'Aufgaben_'
'Angriff_'
'Anbetracht_'
'After_'
'49_'
'45_'
'36_'
'26_'
'22_'
'1'
'“'
'ünd'
'ücht'
'überw'
'örder'
'é_'
'ätz'
'äre_'
'äg'
'ßen_'
'Überprüfung_'
' –, _'
'zuf'
'zit'
'zahlreiche_'
'ys'
'written_'
'worked_'
'wishes_'
'wirkung'
'wieder'
'weshalb_'
'weisen_'
'wei'
'vorange'
'vier'
'verteil'
'versichern_'
'verpflichtet_'
'verhindert_'
'verein'
'verbunden_'
'uss_'
'uri'
'unterzeichnet_'
'unterschiedlichen_'
'umwelt'
'tur'
'tung_'
'tti'
'tte'
'tragic_'
'tradition'
'totally_'
'top_'
'told_'
'tl'
'tit'
'tig'
'thereby_'
'technischen_'
'ta_'
'submit_'
'ständigen_'
'streng'
'stor'
'stimme_'
'stic'
'sse'
'spricht_'
'space_'
'sovereignty_'
'southern_'
'source_'
'sorg'
'sichere'
'sicher'
'sho'
'ship_'
'sge'
'session_'
'sehe_'
'seeks_'
'schwe'
'schlechte'
'schlagen_'
'schafts'
'sat'
'rufen_'
'rta'
'ron'
'rl'
'revi'
'ress_'
'resolved_'
'res'
'represent_'
'ren'
'remov'
'rely_'
'reite'
'regionalen_'
'regionale_'
'refugees_'
'ree'
'reden_'
'reconstruction_'
'recommendations_'
'rechts_'
'rechtlichen_'
'rechte_'
'rece'
'recall_'
'rahmen_'
'ption_'
'proceedings_'
'pres'
'powers_'
'positions_'
'pollution_'
'plu'
'plo'
'plant_'
'pit'
'phi'
'person_'
'pers'
'periods_'
'payments_'
'parliament_'
'ote_'
'ot'
'original_'
'origin_'
'option_'
'opposed_'
'operation_'
'officials_'
'offers_'
'od_'
'obvious_'
'nz'
'nti'
'nst'
'normal_'
'nor'
'niemals_'
'nia'
'net'
'neither_'
'neighbouring_'
'nationale_'
'nation_'
'müsste_'
'möglichst_'
'mä'
'ms'
'mme'
'mittel'
'minority_'
'min'
'militärischen_'
'mic'
'mehreren_'
'mat'
'manage_'
'logical_'
'log'
'lier'
'leid'
'languages_'
'langen_'
'land'
'kument'
'kulturelle_'
'kt'
'krieg'
'kre'
'kommen'
'komme_'
'king_'
'kenn'
'keineswegs_'
'kehr'
'kaum_'
'ju'
'jeweiligen_'
'je_'
'ition_'
'ism_'
'ip'
'involving_'
'internationaler_'
'intentions_'
'instance_'
'inspect'
'informed_'
'infl'
'ined_'
'ine'
'industrie_'
'indu'
'indicated_'
'impose_'
'immediate_'
'ili'
'ilde'
'ik_'
'if'
'iel'
'hung'
'hor'
'hoffen_'
'hoch_'
'hoch'
'hm'
'hinter_'
'hingewiesen_'
'hinder'
'hervorheben_'
'harmonisation_'
'happening_'
'handel_'
'halt_'
'halt'
'halbe'
'gui'
'guarantees_'
'gri'
'gratulieren_'
'grad'
'geschützt_'
'genug_'
'geltenden_'
'gelegt_'
'gegenwärtigen_'
'gefährliche'
'ged'
'gal'
'gabe_'
'fällt_'
'fs_'
'fordere_'
'flu'
'fish_'
'firm_'
'fine_'
'finde_'
'find'
'finanziellen_'
'figures_'
'festgelegt_'
'fern_'
'fei'
'fehlt_'
'families_'
'fairly_'
'explanation_'
'expense_'
'expectations_'
'exercise_'
'exce'
'examin'
'evaluation_'
'erwähnt_'
'erst'
'erkennen_'
'erinnert_'
'erfordert_'
'equi'
'eo'
'entry_'
'entirely_'
'enth'
'enormous_'
'enk'
'engage'
'enabling_'
'ena'
'emo'
'eme'
'elected_'
'ek'
'einzige_'
'eingehalten_'
'ehr'
'ege'
'eco'
'dürfte_'
'drück'
'dly_'
'determined_'
'determination_'
'demo'
'demi'
'delay_'
'daten_'
'cture'
'cra'
'contrary_'
'contain_'
'consumption_'
'construction_'
'comply_'
'compared_'
'clean'
'city_'
'citizen_'
'cho'
'calls_'
'calling_'
'cal'
'ca'
'bur'
'brings_'
'braucht_'
'bol'
'block'
'billig'
'bildung_'
'bilden_'
'bezahl'
'bez'
'betroffenen_'
'betonen_'
'bestand_'
'besorgt_'
'bericht_'
'beginnen_'
'befassen_'
'bear'
'bea'
'be'
'bb'
'bau_'
'base_'
'bas'
'bare'
'bal'
'außer_'
'ausl'
'aufmerksam_'
'aub'
'attacks_'
'attack_'
'ations'
'ating_'
'ase'
'arguments_'
'arat'
'appears_'
'angs'
'anges'
'anders_'
'anderem_'
'ander'
'ambitious_'
'amb'
'allgemeinen_'
'alcohol_'
'ala'
'akzeptiert_'
'activity_'
'acht_'
'achieving_'
'abzu'
'Zusammenhalt_'
'Zug'
'Zi'
'Wissen_'
'Wh'
'Wasser_'
'Wa'
'Vorsitzenden_'
'Vorsitz_'
'Vorschlags_'
'Vielen_'
'Verst'
'Verm'
'Verhältnis_'
'Verhandlungs'
'Verfassungs'
'Vereinbarungen_'
'Verbot_'
'Va'
'VI'
'Unfortunately_'
'Unabhängigkeit_'
'Todesstrafe_'
'Süd'
'Sup'
'Straßen'
'St'
'Sea_'
'Schutz'
'Schritte_'
'Safety_'
'Regierungs'
'Q'
'Produkte_'
'Problems_'
'Portuguese_'
'Patten_'
'Ort_'
'Oktober_'
'Nutzen_'
'Nielson_'
'Nicht_'
'Nevertheless_'
'Natura_'
'Nachbarn_'
'Mos'
'More_'
'Mittel'
'Mitgliedschaft_'
'Minderheiten_'
'Menschenrechts'
'Meinungs'
'Maßnahme_'
'Mal'
'Mac'
'Lu'
'L_'
'Kü'
'Konvention_'
'Kontroll'
'Kollegin_'
'Kl'
'Kam'
'Italien_'
'Is_'
'Inter'
'Ins'
'Güter'
'Go'
'Gleich'
'Glaubwürdigkeit_'
'Gipfel_'
'Gestatten_'
'Gesetz_'
'Geschichte_'
'Ger'
'Gemein'
'Geh'
'Gegen'
'Gebiete_'
'Freund'
'Freizügigkeit_'
'Fr'
'Ex'
'Ern'
'Erm'
'Erl'
'Erhöhung_'
'Ereignisse_'
'Ent'
'En'
'El'
'Einhaltung_'
'Eigen'
'Doha_'
'Dann_'
'Cuba_'
'Constitutional_'
'Conc'
'Common_'
'Commissioners_'
'Cl'
'Chi'
'CO2_'
'CE'
'By_'
'Bush_'
'Bulgarien_'
'Bu'
'Bru'
'Bolkestein_'
'Bez'
'Bedrohung_'
'Barón_'
'Bar'
'Arbeitsmarkt_'
'Arbeitslosigkeit_'
'Anspruch_'
'Anh'
'An_'
'Alle_'
'Agency_'
'32_'
'. - _'
'" '
'üssen_'
'üs'
'ührt_'
'übrigen_'
'üb'
'ó'
'ätze_'
'ät'
'ärk'
'äm'
'Änderungsanträgen_'
'zy'
'zweitens_'
'zulassen_'
'zugunsten_'
'zufrieden_'
'zo'
'zer'
'zahlen_'
'ystem'
'yer_'
'xt'
'worth_'
'works_'
'wonder_'
'wish'
'wis'
'wine_'
'wiederholen_'
'wichtigste_'
'whilst_'
'whe'
'westlichen_'
'wenigen_'
'weiteres_'
'weiterer_'
'weg_'
'weeks_'
'warten_'
'warm'
'wahlen_'
'vulnerable_'
'vorges'
'vorgenommen_'
'vorbe'
'volu'
'volle_'
'voice_'
'vin'
'vic'
'via_'
'vessels_'
'verurteilt_'
'verteidigen_'
'vert'
'verstanden_'
'verlieren_'
'verle'
'verh'
'verabschiedet_'
'uts'
'ute'
'usw_'
'usi'
'urf'
'ums_'
'ula'
'ue_'
'types_'
'tw'
'tter'
'tt_'
'truly_'
'treaty_'
'transitional_'
'tory_'
'tly_'
'tin'
'timm'
'test_'
'tend_'
'technologies_'
'target_'
'talks_'
'tackle_'
'tac'
'sämtliche'
'sweise_'
'swe'
'supply_'
'substance_'
'study_'
'structure_'
'stru'
'stocks_'
'steuer'
'sten'
'stellung_'
'stehenden_'
'stattfinden_'
'statt'
'stag'
'staatliche_'
'sph'
'spar'
'sozialer_'
'sources_'
'son_'
'solely_'
'sodass_'
'sn'
'sma'
'sli'
'ski'
'size_'
'sinnvoll_'
'sinn'
'series_'
'sensible_'
'seem_'
'sec'
'schlägt_'
'rupt'
'ruc'
'ro_'
'rme'
'rit'
'ries_'
'richtet_'
'ric'
'restor'
'ress'
'represents_'
'represented_'
'repr'
'repe'
'remove_'
'reicht_'
'refuse'
'reflection_'
'referendum_'
'recommendation_'
'recognised_'
'recht'
'reb'
'ready_'
'rd_'
'rb'
'rau'
'rat_'
'rac'
'quickly_'
'purposes_'
'pur'
'published_'
'protecting_'
'prosperity_'
'proposes_'
'property_'
'professional_'
'privilege'
'prison_'
'prer'
'pre_'
'ppe_'
'post_'
'politisches_'
'poli'
'ple'
'placed_'
'pho'
'pfe'
'perfectly_'
'pension_'
'pension'
'pat'
'passengers_'
'ort'
'organ'
'opt_'
'oph'
'operati'
'ons'
'ona'
'ommt_'
'omm'
'ome'
'om'
'oll'
'oh'
'offered_'
'ody_'
'och'
'obligation_'
'numerous_'
'nsi'
'notwendige_'
'nm'
'nisch'
'nent'
'ndeten_'
'nder_'
'nahme'
'nachge'
'na_'
'möglicherweise_'
'mussten_'
'motor'
'mobilis'
'mm'
'ml'
'meri'
'mente'
'menta'
'membership_'
'material_'
'markt_'
'mark_'
'mant'
'ma_'
'lässt_'
'loy'
'lm'
'lly_'
'lla'
'liti'
'line'
'liberal_'
'lf'
'len'
'lem'
'legitimate_'
'lde'
'lar_'
'lar'
'künftig_'
'kün'
'kr'
'kosten_'
'konkreten_'
'kle'
'kat'
'journalists_'
'jo'
'jener_'
'ively_'
'itt'
'ities_'
'island_'
'isch'
'involves_'
'involvement_'
'intervention_'
'interessiert_'
'inst'
'ins'
'innovative_'
'innovation_'
'informiert_'
'industries_'
'improvement_'
'imagine_'
'ile'
'ike'
'ierte_'
'ieg'
'ieb'
'ideologi'
'ichen_'
'ich'
'ian'
'ially_'
'hundreds_'
'hst'
'hre'
'house'
'hinzu'
'hing_'
'himself_'
'hervorragende'
'hab'
'gutes_'
'grundlegende_'
'grounds_'
'greenhouse_'
'gre'
'graph'
'gne'
'globalen_'
'gg'
'geäußert_'
'geworden_'
'gewisse_'
'get'
'geo'
'gelungen_'
'gegenwärtige_'
'früher_'
'fruit'
'fri'
'free'
'fr'
'forget_'
'foot'
'fo'
'fields_'
'ff_'
'fel'
'fear_'
'fan'
'extra'
'expressing_'
'expo'
'exclusion_'
'este'
'ess'
'erhöhen_'
'ergriffen_'
'erforderliche_'
'erfolgreich_'
'entstehen_'
'entschieden_'
'entlich_'
'entl'
'entgegen'
'emergency_'
'ema'
'einzur'
'einzuführen_'
'eins'
'einheitliche_'
'eingebracht_'
'effektive'
'ect'
'ech'
'eben'
'duties_'
'dung_'
'drawn_'
'distinguish_'
'disc'
'disaster_'
'disappoint'
'din'
'dig_'
'dig'
'difficulty_'
'difference_'
'dienen_'
'dge'
'det'
'described_'
'derzeitige_'
'dent'
'demonstrat'
'demokratische_'
'dead'
'daily_'
'cuts_'
'cts_'
'ction_'
'ct'
'cs_'
'cro'
'credit_'
'credibility_'
'cooperate_'
'convergence_'
'contained_'
'constitution_'
'concentrate_'
'comprehensive_'
'collective_'
'cla'
'cities_'
'chl'
'changing_'
'chance_'
'cas'
'capital_'
'can'
'bs'
'britische_'
'bod'
'bl'
'bir'
'bin'
'bi'
'beteiligt_'
'beschließen_'
'beschleunigen_'
'beschl'
'ber_'
'beha'
'beh'
'bee'
'bedauer'
'bedarf_'
'beda'
'bauen_'
'barkeit_'
'badly_'
'ay'
'ausgesetzt_'
'ausb'
'aufe'
'ates_'
'ass'
'arrangements_'
'arm'
'arit'
'applications_'
'anzus'
'anste'
'anb'
'amongst_'
'allein_'
'ale_'
'aktiv_'
'air'
'ah'
'adopting_'
'ade'
'addressing_'
'abstimmen_'
'absence_'
'absch'
'abs'
'Zusammens'
'Zucker'
'Zentralbank_'
'You'
'Würde_'
'Während_'
'Wunsch_'
'Women_'
'Wochen_'
'Wiederauf'
'Wege_'
'Waren_'
'Völker'
'Vorteile_'
'Vorgehen_'
'Volksgesundheit_'
'Veränderungen_'
'Vertr'
'Verteidigungspolitik_'
'Verh'
'Unser_'
'U_'
'UNO_'
'Tätigkeit_'
'Ts'
'Todes'
'Tagung_'
'Syria_'
'Streit'
'Status_'
'Stability_'
'Staats'
'Sport_'
'Sinn_'
'Serbia_'
'Sen'
'Schwerpunkt'
'Schwei'
'Schulz_'
'Schluss'
'Schiffe'
'Sche'
'Sc'
'Rumänien_'
'Rot'
'Roma_'
'Risiko'
'Regi'
'Ratspräsident_'
'Question_'
'Prinzipien_'
'Prinzip_'
'Prime_'
'Presse'
'Preise'
'Pre'
'Pol'
'Plenum_'
'Pi'
'Pfl'
'Petition'
'Perspektive_'
'Personal_'
'Par'
'Pakistan_'
'Organ'
'Not_'
'Nor_'
'Nizza_'
'New_'
'Neben'
'Monate_'
'Mein_'
'Meeres'
'Lit'
'Liberal'
'Lesung_'
'Leid'
'Land'
'Küsten'
'Kra'
'Konflikt'
'Kommissionspräsident_'
'Klima'
'Klar'
'Kingdom_'
'Kau'
'Januar_'
'J'
'Höhe_'
'Hä'
'Hoch'
'Hi'
'Herzen_'
'Here_'
'Haft'
'Gu'
'Greece_'
'Gleichstellung_'
'Gleichgewicht_'
'Gefahren_'
'Gar'
'Gang_'
'Frist'
'Fin'
'Fest'
'Europol_'
'Erw'
'Erst'
'Erreichung_'
'Erne'
'Erf'
'Erbe'
'English_'
'Em'
'Einheit_'
'Einfluss'
'Eine'
'Einbeziehung_'
'Effizienz_'
'EIB_'
'EC'
'Drittländern_'
'Dritte'
'Do_'
'Diskussionen_'
'Dienst'
'Despite_'
'Dem_'
'Daten'
'Darin_'
'Crespo_'
'Cr'
'Chancengleichheit_'
'Ch'
'Cam'
'COM_'
'Bundes'
'Bra'
'Br'
'Besitz'
'Besch'
'Berufs'
'Berlin_'
'Bere'
'Ben'
'Behandlung_'
'Bedenken_'
'Austrian_'
'Auge_'
'Att'
'Ann'
'Ang'
'Anforderungen_'
'Anerkennung_'
'Although_'
'Also_'
'Aktionen_'
'Akti'
'Agrarpolitik_'
'African_'
'Absatz_'
'ACP_'
'95_'
'200_'
'1990'
'14'
'12'
'04'
'- (_'
', ‘_'
'))._'
')'
'' '
'''
' –, _'
'“._'
'’, _'
'überm'
'ökologische'
'ärm'
'änglich'
'änger'
'änder'
'än'
'ße'
'Öko'
'Ö'
'Änderungs'
' '
'zuzu'
'zusätzlichen_'
'zuständig_'
'zusammenarbeiten_'
'zurückzu'
'zuk'
'zugleich_'
'zerstör'
'zentr'
'zen'
'zeichnet_'
'zei'
'ys_'
'yr'
'yes_'
'x'
'wun'
'witness'
'willi'
'widers'
'wh'
'wettbewerbs'
'werte_'
'wer_'
'went_'
'wende'
'welches_'
'wel'
'weitgehend_'
'weil'
'warum_'
'wand'
'wachs'
'voll'
'violation'
'vie'
'vet'
'verwiesen_'
'vertrete'
'versorgung_'
'vers'
'vermittel'
'verleihen_'
'verlangt_'
'verla'
'verge'
'verantwortungs'
'ust'
'unterbreitet_'
'unterbr'
'unl'
'union_'
'ungen'
'unft'
'unan'
'ums'
'uldig'
'uld_'
'ught_'
'uerung_'
'uel'
'uation'
'tze'
'tuna'
'trä'
'transport'
'train'
'trage'
'trafficking_'
'trading_'
'track_'
'tobacco_'
'tions'
'tional_'
'tg'
'ters_'
'term'
'tari'
'targets_'
'sustain'
'sur'
'supposed_'
'suffer_'
'subsequent'
'strongly_'
'straight'
'stoff'
'starting_'
'started_'
'standard_'
'stake'
'staat'
'sses_'
'später_'
'spring_'
'sport_'
'solange_'
'soft'
'sla'
'site_'
'significance_'
'shortage_'
'shi'
'she'
'sh'
'sets_'
'separate_'
'sektors_'
'seien_'
'secondly_'
'sco'
'schutz'
'schnell'
'schemes_'
'schein'
'sber'
'sbe'
'safeguard'
'sach'
'rück'
'rz'
'run'
'rti'
'rte'
'row'
'rop'
'rob'
'roads_'
'rm_'
'rk_'
'rightly_'
'rier'
'respected_'
'requirement_'
'rep'
'renewable_'
'reif'
'reich'
'regulier'
'regulatory_'
'recognition_'
'realise_'
'read_'
'rden'
'rate'
'rasch_'
'rar'
'range_'
'rai'
'rage_'
'rad'
'quir'
'quali'
'pursui'
'pulat'
'prozess_'
'protected_'
'pros'
'proportion'
'pro_'
'press'
'preserve'
'prakti'
'ppen_'
'positive'
'portugiesische'
'port'
'politics_'
'politicians_'
'pleasure_'
'played_'
'piel'
'phenomenon_'
'ph'
'pf'
'pet'
'persönliche'
'permitted_'
'ov'
'organisationen_'
'ora'
'opp'
'operations_'
'ont'
'onis'
'ommen_'
'ola'
'oft_'
'offiziell'
'offic'
'ocat'
'observe'
'nächster_'
'nutz'
'nunmehr_'
'now'
'noted_'
'normale'
'noise_'
'nnt'
'nla'
'nkt_'
'niveau_'
'nische_'
'nicht'
'nge_'
'neue'
'ner'
'neo'
'ndlich'
'nationalis'
'nal'
'mäßig'
'moving_'
'mou'
'model'
'mist'
'minist'
'milk_'
'milit'
'methods_'
'messen_'
'mein'
'maximum_'
'mass_'
'mandate_'
'maintained_'
'läuft_'
'ländlichen_'
'ländern_'
'lys'
'lv'
'lus'
'llen'
'lini'
'lim'
'likely_'
'licher_'
'liche'
'lich'
'liber'
'lia'
'lett'
'let'
'leng'
'leiden'
'legi'
'legally_'
'leads_'
'laws_'
'laut_'
'laufen_'
'labelling_'
'la_'
'künftigen_'
'kurze'
'kung'
'kor'
'kontrollieren_'
'know'
'klare_'
'kh'
'ket'
'keiner_'
'jährlich_'
'junge'
'judicial_'
'jemand'
'jedem_'
'iven_'
'ive'
'ittel'
'ite'
'ital'
'isation_'
'ior'
'invite'
'investi'
'intens'
'intend_'
'initial_'
'inh'
'inclusion_'
'inander_'
'impression_'
'import_'
'immun'
'immediately_'
'imme'
'illegalen_'
'illegale_'
'ika'
'igen'
'iet'
'idi'
'identified_'
'ichtung_'
'ichts'
'icht'
'iche_'
'höhere'
'hä'
'humanitäre'
'hrt_'
'hren_'
'hope'
'honour_'
'honest_'
'hn_'
'hio'
'hig'
'hier'
'hervorgehoben_'
'herstell'
'hel'
'heart_'
'hearing_'
'head'
'günstig'
'gs'
'größeren_'
'größere'
'greatest_'
'ght'
'gestärkt_'
'gesehen_'
'geschieht_'
'gera'
'generell_'
'generat'
'generally_'
'gener'
'gend'
'gemeinschaftlichen_'
'gem'
'gele'
'gelangen_'
'gei'
'gehör'
'gebiete'
'garantieren_'
'gaben_'
'füg'
'fy_'
'fruit_'
'front'
'friedliche'
'freuen_'
'fre'
'französische'
'fourth_'
'former_'
'folgenden_'
'folge'
'fly'
'fleet'
'fit_'
'finanzielle_'
'fication_'
'fen'
'feel'
'fail_'
'fahrt'
'factors_'
'fact'
'faced_'
'ez'
'extremis'
'extended_'
'expla'
'exp'
'examine_'
'eventu'
'eva'
'eut'
'eta'
'ese_'
'erwähnen_'
'erstatt'
'erre'
'erhöht_'
'erfolgt_'
'erfolgreichen_'
'eren'
'entweder_'
'entschlossen_'
'entscheidender_'
'entr'
'enter'
'enta'
'enn'
'ending_'
'enc'
'emphasise'
'ement_'
'election_'
'eite'
'einzus'
'einzigen_'
'einzelstaatliche'
'einse'
'einn'
'eingegangen_'
'eingeführt_'
'einfacher_'
'eign'
'eichen'
'egen'
'effectiveness_'
'edo'
'ede'
'echt'
'dy_'
'durchge'
'drugs_'
'drittens_'
'dringende'
'double_'
'dor'
'dn'
'diver'
'distr'
'disputes_'
'dispos'
'disp'
'disease_'
'discharge_'
'die'
'dia'
'deut'
'details_'
'detail_'
'ders_'
'ders'
'depend'
'denk'
'demonstrate_'
'deliver_'
'defined_'
'declare'
'deadline_'
'danger_'
'ctions_'
'correspond'
'conventions_'
'contribute_'
'contracts_'
'contract_'
'contr'
'continues_'
'continued_'
'contemp'
'constructive_'
'constitute_'
'confront'
'condition'
'cond'
'completed_'
'competences_'
'committees_'
'clause_'
'chu'
'chst'
'chritt'
'chr'
'check_'
'charge'
'chan'
'cent'
'careful_'
'car_'
'candidates_'
'ca_'
'bus'
'built_'
'break'
'bor'
'bla'
'bildet_'
'betreffenden_'
'betrachten_'
'beteilig'
'bestätigen_'
'bestehenden_'
'beschränken_'
'beruht_'
'belief_'
'bel_'
'bekämpfung_'
'bekämpfen_'
'beitr'
'beit'
'beings_'
'beige'
'behörden_'
'behaviour_'
'begonnen_'
'began'
'bedanken_'
'bank_'
'bank'
'average_'
'außerdem_'
'auswärtige_'
'ausführliche'
'aufs'
'aufgeg'
'auffordern_'
'atis'
'assess'
'article_'
'arbeits'
'approv'
'anyw'
'antrag'
'answer'
'ansi'
'anderes_'
'ana'
'amm'
'alt'
'alität'
'akt'
'aki'
'aini'
'ags_'
'agencies_'
'affect_'
'advantage_'
'admit_'
'adi'
'additional_'
'acknowledge_'
'achievement'
'accounts_'
'accidents_'
'acc'
'abzus'
'absolute_'
'abkommen_'
'abgelehnt_'
'abgeben_'
']'
'Zusammen'
'Ziel'
'Wohl'
'White_'
'Where_'
'West'
'Wert'
'Vorteil_'
'Vorr'
'Voraussetzung_'
'Volkes_'
'Viele_'
'Vice_'
'Verwe'
'Vertrag'
'Verteidigung_'
'Versuch_'
'Verlust'
'Verf'
'Verd'
'Untersuchung_'
'Unterschiede_'
'Untersch'
'Unternehmens'
'Uni'
'Treffen_'
'Thus_'
'Ter'
'Sy'
'Swoboda_'
'Stä'
'Studie_'
'Stoffe_'
'Steuerzahler_'
'Standpunkte'
'Spa'
'Sit'
'Schu'
'Schla'
'Saddam_'
'Russ'
'Rubrik_'
'Rom'
'Regul'
'Regions_'
'Regel_'
'Rede'
'Realität_'
'Rats'
'RO'
'Qua'
'Programms_'
'Problemen_'
'Pri'
'Polizei'
'Plan_'
'Phase_'
'Pers'
'Perhaps_'
'Per'
'Palacio_'
'Osten_'
'Ohne_'
'Ober'
'OS'
'Not'
'Niveau_'
'Niederlande'
'National'
'Nacht'
'Nachbarschafts'
'NATO_'
'Mon'
'Mitentscheidung'
'Minister'
'Migra'
'Mei'
'Massen'
'Mari'
'Lei'
'Lebens_'
'Kulturen_'
'Kriminalität_'
'Kredit'
'Kontrollen_'
'Kontinent_'
'Kontakt_'
'Kont'
'Konsens_'
'Kompromiss'
'Kollege_'
'Klein'
'Kern'
'Ke'
'Kas'
'Kara'
'K_'
'Je'
'Japan_'
'It'
'Israeli_'
'Internal_'
'Inhalt_'
'Indien_'
'Ihrem_'
'Ide'
'IF'
'Hinweis'
'Herz'
'Harmonisierung_'
'Hamas_'
'Grenze_'
'Green_'
'Gespräche_'
'Gesetze_'
'Ges'
'Gel'
'Gegenstand_'
'Gegensatz_'
'Gefä'
'Gedanken_'
'Gaza_'
'Gas'
'Fä'
'Fundamental_'
'Front'
'Fre'
'Fonds_'
'Falle_'
'Es'
'Erwartungen_'
'Errichtung_'
'Erd'
'Entschl'
'Einrichtungen_'
'Einklang_'
'Einige_'
'ES_'
'Dur'
'Donnerstag_'
'Does_'
'Diskriminierung'
'Dis'
'Dienste_'
'Dennoch_'
'Dar'
'Cu'
'Cor'
'Consumer_'
'Christ'
'Charakter_'
'Chancen_'
'Ce'
'Bus'
'Bud'
'Buch'
'Brussels_'
'Botschaft_'
'Bewältigung_'
'Betri'
'Beteiligung_'
'Beteiligten_'
'Beste'
'Besatzung'
'Bes'
'Beratung'
'Bele'
'Bekanntlich_'
'Begr'
'Bed'
'Beamten_'
'Beachtung_'
'Bau'
'Bas'
'Außen'
'Auto'
'Ausweitung_'
'Ausg'
'Auftrag'
'Aufsch'
'Aufl'
'Aufbau_'
'Aspekten_'
'Arzneimittel'
'Arbeitskräfte'
'Anteil_'
'Anreiz'
'Another_'
'Ank'
'Anfang_'
'Analyse_'
'Akteure_'
'According_'
'Absch'
'A6_'
'300_'
'21'
'1995_'
'15'
'11'
'%._'
'"'
'ün'
'ül'
'ühren_'
'ücke'
'üblich'
'überzeugen_'
'überge'
'überaus_'
'überall_'
'ön'
'öff'
'äußern_'
'äst'
'äss'
'äll'
'ägen_'
'ächt'
'án'
'Übersch'
'Übers'
'Übergangs'
'Öffnung_'
'Är'
'zw'
'zuständigen_'
'zogen_'
'zip'
'zierung_'
'zie'
'yss'
'yn'
'wonach_'
'wollten_'
'withdraw'
'willk'
'willing_'
'whi'
'wesentlich_'
'wesen_'
'wert_'
'wen'
'welt'
'water'
'völ'
'vorzulegen_'
'vorzube'
'vorstellen_'
'vorsi'
'vorschlagen_'
'vors'
'vorl'
'vorhanden_'
'vorgeb'
'voran'
'voneinander_'
'volle'
'veröffentlicht_'
'verz'
'verständlich'
'verspr'
'verschw'
'verschieden'
'versa'
'verpflichten_'
'verhandel'
'vereinbar'
'verbot'
'venti'
'vehicles_'
'uter'
'ustr'
'usa'
'urgently_'
'urge'
'upp'
'unterschiedliche_'
'untern'
'unsch'
'unless_'
'unk'
'unions'
'ung'
'unfa'
'undene'
'unde'
'unce'
'unange'
'unabhängige'
'un_'
'umfangreiche'
'ul_'
'ugh'
'ud'
'türkischen_'
'tz_'
'twi'
'tut_'
'tungen_'
'tums_'
'treiben_'
'transparente'
'transfer'
'touch'
'tlich'
'tive_'
'tiv'
'titution_'
'tio'
'time'
'tier'
'threshold_'
'thou'
'thinking_'
'thin'
'test'
'terrible_'
'teilnehme'
'technological_'
'tatsächliche'
'tangible_'
'tai'
'tage_'
'tag_'
'systeme'
'sw'
'surrounding_'
'supports_'
'supp'
'super'
'summ'
'substantial_'
'subsidi'
'stütz'
'stärk'
'ständige'
'ständ'
'studie'
'structures_'
'strengthening_'
'stimmt_'
'ster_'
'steige'
'stance_'
'stabilis'
'stabile'
'staatlichen_'
'sso'
'sser'
'ssa'
'sre'
'spoken_'
'spezielle'
'spend_'
'spect'
'specifi'
'species_'
'speci'
'sou'
'solide'
'solcher_'
'sol'
'sofort_'
'sle'
'sitz'
'sion'
'significantly_'
'sight_'
'sier'
'sichtlich_'
'sichtig'
'sicherheit_'
'shock'
'shel'
'sex'
'settle'
'seriously_'
'sende'
'send'
'sel_'
'seh'
'section'
'secret'
'sea'
'schwere'
'schuss_'
'schr'
'schools_'
'school_'
'schneller_'
'schm'
'schlimm'
'schließe_'
'schi'
'sc'
'sb'
'saw_'
'satisfact'
'same'
'sam_'
'sale'
'sah'
'sad'
'rteil'
'rted_'
'rsta'
'rr'
'rp'
'round_'
'root'
'roh'
'rly_'
'rli'
'riti'
'rischen_'
'rid'
'rich_'
'ri_'
'rf'
'reun'
'reten'
'reta'
'respects_'
'resid'
'requested_'
'repro'
'repeated'
'repeat_'
'reme'
'religious_'
'reject_'
'reiten_'
'reibung'
'regulate_'
'regionaler_'
'regelung_'
'redi'
'rede'
'reconcil'
'reasonable_'
'realistische'
'realised_'
'read'
'ratifiziert_'
'rat'
'raising_'
'railway'
'rail_'
'ragen_'
'raf'
'ra_'
'ques'
'pursue_'
'pu'
'pte'
'prove_'
'prote'
'prospects_'
'promoted_'
'promise_'
'profitieren_'
'processing_'
'preventi'
'present'
'prepare_'
'preparation_'
'preis'
'predict'
'pred'
'praktische_'
'praktische'
'practically_'
'posts_'
'politisch_'
'pointed_'
'plat'
'pin'
'piece_'
'picture_'
'pflicht'
'personen'
'performance_'
'perform'
'peoples_'
'pay'
'path_'
'passi'
'partei_'
'paren'
'palästinensischen_'
'page'
'pac'
'oti'
'oth'
'orm'
'orient'
'ordnungsgemäß_'
'options_'
'operational_'
'ology_'
'ologie'
'ok'
'ogati'
'of'
'oe'
'obtain_'
'observers_'
'objection'
'oben_'
'nü'
'nzen_'
'nungs'
'nungen_'
'ntw'
'nte'
'nsch'
'np'
'noti'
'nke'
'nischen_'
'nig'
'nheit'
'ngl'
'nell'
'nehme_'
'neben_'
'nders'
'nci'
'nb'
'nah'
'nachhaltigen_'
'nachdem_'
'mögliche_'
'mögen_'
'mär'
'multinational'
'mpe'
'motiv'
'moralische_'
'monitor_'
'mine_'
'militärische_'
'mil'
'meetings_'
'meat_'
'measure_'
'meaning_'
'mber'
'massive_'
'mass'
'mas_'
'market'
'maritime_'
'mani'
'male_'
'lti'
'losse'
'llt'
'lls'
'listen'
'liebe_'
'licence'
'liberalis'
'lg'
'letztlich_'
'lenken_'
'leiten_'
'leich'
'leg'
'learn_'
'lear'
'ld'
'lateral'
'largely_'
'langfristig'
'lande'
'lab'
'kunft'
'ktiv'
'ktions'
'ktion'
'krat'
'kontrolle'
'konsu'
'kleine_'
'klaren_'
'kill'
'kennen_'
'kam_'
'joy'
'journ'
'jetzigen_'
'jedenfalls_'
'jahr'
'izie'
'itte'
'itr'
'iten_'
'isten'
'ising_'
'ishe'
'irgendw'
'inz'
'introducing_'
'interpret'
'interinstitutional_'
'intends_'
'intell'
'integrated_'
'integra'
'insu'
'insist'
'inl'
'inge'
'infect'
'imposed_'
'impli'
'ima'
'ily_'
'illegal'
'ik'
'ign'
'ift'
'ification_'
'ience_'
'ielt_'
'iede'
'ieben_'
'identity_'
'identi'
'ideal'
'ia'
'hs_'
'hr'
'host_'
'hohe'
'hoff'
'hne_'
'hmig'
'hip'
'highlight'
'heutigen_'
'hes'
'herz'
'hervor_'
'help'
'heim'
'heben_'
'hb'
'harmonisier'
'hard'
'happens_'
'handl'
'handels'
'hafte'
'haft'
'guter_'
'grundsätzlich'
'grundlegenden_'
'grenzüberschreitende'
'grenze'
'grant_'
'got_'
'glo'
'glad_'
'gie'
'gew'
'gether_'
'gestatte'
'gestalt'
'geringe'
'geregelt_'
'genügend_'
'genuinely_'
'genero'
'gene'
'genannt_'
'gemeine'
'geli'
'geleg'
'gelassen_'
'gehalten_'
'gege'
'gave_'
'gas'
'gap_'
'gangen_'
'fünf'
'führende_'
'führ'
'fü'
'fähigkeit_'
'ftier'
'friendly_'
'frame'
'fra'
'found'
'fos'
'formal_'
'forma'
'forg'
'forest_'
'fon'
'fluss'
'flight'
'fle'
'fla'
'firmly_'
'finding_'
'finanzieren_'
'finance_'
'finance'
'fin'
'fikation'
'figure_'
'fic'
'feste'
'fest'
'fang'
'fal'
'faire'
'fails_'
'extreme'
'express'
'expert'
'exists_'
'existence_'
'exemption_'
'exclu'
'exceptions_'
'exceptional_'
'every'
'ethnische'
'ethi'
'ete_'
'etc_'
'esti'
'est_'
'essen'
'esc'
'erzielte'
'erstmal'
'erneuerbare'
'erläuter'
'erlaub'
'erlassen_'
'erheblich_'
'erfreut_'
'erfolg'
'erf'
'ere'
'erd'
'erarbeitet_'
'erarbeiten_'
'entlich'
'entire_'
'entered_'
'enf'
'ender_'
'encourage'
'emp'
'emburg'
'elli'
'element_'
'ekt'
'eitig'
'eit_'
'einzusetzen_'
'einig'
'eingesetzt_'
'eingeb'
'einf'
'eilig'
'eight'
'eigene_'
'eigen'
'ego'
'echten_'
'echte_'
'eche'
'eat'
'easy_'
'easier_'
'eas'
'driving_'
'dritten_'
'drei'
'dr'
'down'
'distinction_'
'distan'
'dist'
'diseases_'
'direkt_'
'digung'
'digital_'
'differences_'
'df'
'devote'
'deutschen_'
'deter'
'destroy'
'dest'
'designed_'
'dern_'
'depr'
'dependent_'
'demokratischer_'
'dem'
'deg'
'defe'
'deco'
'decisive_'
'debt'
'dea'
'dat'
'damals_'
'dahin'
'cut'
'currency_'
'cru'
'cour'
'correctly_'
'correct'
'core_'
'coordinated_'
'convict'
'conven'
'considerations_'
'connect'
'conduct_'
'condemn_'
'concrete_'
'conc'
'compo'
'compensation_'
'communities_'
'colla'
'cle'
'clarify_'
'chutz'
'chten_'
'chsel'
'chose'
'child_'
'ches_'
'chal'
'chaft'
'cer'
'centre_'
'cell'
'ce'
'cc'
'burden_'
'break_'
'bour'
'bomb'
'bly_'
'bislang_'
'bili'
'bigge'
'bezieht_'
'beziehen_'
'bewa'
'beunruhig'
'beträchtliche'
'betont_'
'besonderen_'
'beru'
'berg'
'bereiche'
'benötigt_'
'benach'
'bemerken'
'below_'
'beite'
'beigetragen_'
'beibehalten_'
'befürchte'
'befri'
'befasst_'
'beein'
'bedeutende'
'beantragen_'
'bau'
'ban'
'ball'
'bad_'
'ay_'
'avoid'
'auße'
'autumn_'
'auswirken_'
'ausreichend_'
'ausgew'
'ausgehen_'
'ausgeh'
'ausgeb'
'aufw'
'aufnehmen_'
'aufh'
'auen_'
'aue'
'attach'
'att'
'atl'
'assi'
'aside_'
'aro'
'arde'
'ard'
'arch'
'ara_'
'appl'
'appear_'
'appeal_'
'ansch'
'angs_'
'angemessene_'
'angekündigt'
'angebracht_'
'anerkannt_'
'anerk'
'ands_'
'anc'
'anbelangt_'
'amtierende'
'amounts_'
'amend_'
'ame'
'alternatives_'
'alt_'
'along_'
'allgemeinem_'
'alb'
'airline'
'agency_'
'afrikanische'
'ae'
'acts_'
'ache'
'ach'
'acceptance_'
'abr'
'abl'
'Zy'
'Zwischen'
'Zur'
'Zivilgesellschaft_'
'Zimbabwe_'
'Yugoslav'
'Wä'
'Wol'
'Wirtschafts_'
'Willen_'
'Wie'
'Wichtig'
'Wer_'
'Weltk'
'Wein'
'Vorlage_'
'Vorg'
'Vorf'
'Viertens_'
'Vier'
'Verzögerung'
'Verordnungen_'
'Vermittlungs'
'Verlauf_'
'Verheugen_'
'Vergleich'
'Verfahrens'
'Vereinfachung_'
'Verbreitung_'
'Verbesserungen_'
'Van_'
'Ur'
'Unterzeichnung_'
'Untersuchungen_'
'Uns'
'Ung'
'Umweltschutz_'
'Umweltfragen_'
'Umge'
'Umfang_'
'Tu'
'Tre'
'Trag'
'Tourism_'
'Tonnen_'
'Tele'
'TE'
'Systeme_'
'Such_'
'Stimm'
'Standort'
'Stand_'
'Sprache_'
'Spitze_'
'Spiel'
'Soziald'
'Souveränität_'
'Som'
'Sof'
'Sk'
'Sim'
'Sicherheitspolitik_'
'Services_'
'Secretary_'
'Schwarz'
'Schulen_'
'Rü'
'Rule_'
'Romania_'
'Rob'
'Risiken_'
'Revision_'
'Research_'
'Religion'
'Rei'
'Regulierungs'
'Redner_'
'Rechtsetzung'
'Rechten_'
'Raum'
'Ratsvorsitzes_'
'Randlage_'
'Quali'
'Pros'
'Projekte_'
'Person_'
'Pass'
'Partnerschaften_'
'Papier'
'Os'
'Orte'
'Ord'
'Opposition_'
'Oppo'
'Ombudsman_'
'Olympi'
'OLAF_'
'Nordi'
'Noch_'
'Niemand_'
'Nachbar'
'NRO_'
'Männern_'
'Mä'
'Mut_'
'Mont'
'Monat_'
'Mod'
'Mittelpunkt_'
'Mir_'
'Mer'
'Men'
'Meines_'
'Medien_'
'Mechanismen_'
'Mazedonien_'
'Market_'
'Many_'
'ME'
'Luftraum'
'Liikanen_'
'Legal_'
'Lang'
'Landwirt'
'Lage'
'Kuba_'
'Kriegs'
'Kre'
'Kor'
'Kooperations'
'Kompetenzen_'
'Komp'
'Kommunikations'
'Kommissions'
'Kla'
'Kinder'
'Katastrophen'
'Karte'
'Just'
'Jetzt_'
'Jed'
'Ist_'
'Is'
'Ira'
'Inseln_'
'Industry_'
'India_'
'Ihr_'
'Idee_'
'IT_'
'INI_'
'Hö'
'Hussein_'
'Home_'
'Hintergrund_'
'Hindernis'
'Heute_'
'Herstellung_'
'Heran'
'Hen'
'Haus'
'Har'
'Handels_'
'Halb'
'Hafen'
'Göteborg_'
'Got'
'Glück_'
'Given_'
'Gipfeltreffen_'
'Gewinne'
'Gew'
'General'
'Gene'
'Gemeinschaftsp'
'Gegenwärtig_'
'Gegens'
'Ganze'
'Gal'
'From_'
'Freude_'
'Fran'
'Framework_'
'Fraktionen_'
'Forts'
'Food_'
'Flo'
'Fischereipolitik_'
'Finanzierungs'
'Film'
'Fernsehen_'
'Faktoren_'
'Fac'
'Europäisches_'
'Europäer_'
'Erfo'
'Entwicklungsländern_'
'Energy_'
'Emissionen_'
'Einwander'
'Einkommen_'
'Einig'
'EL'
'ECH'
'Drogen'
'Dre'
'Dor'
'Dol'
'Direkt'
'Deutsch'
'Demokraten_'
'Dass_'
'Darum_'
'Dam'
'Dadurch_'
'Culture_'
'Cons'
'Ci'
'Chechnya_'
'Bürokratie_'
'Bulgaria_'
'Bre'
'Bitte_'
'Bis'
'Bio'
'Bin'
'Bild_'
'Bil'
'Bi'
'Betracht'
'Besonder'
'Berichten_'
'Beitrittsländer'
'Begriff_'
'Before_'
'BSE_'
'Ausw'
'Ausr'
'Ausl'
'Aufnahme_'
'Aufg'
'Ass'
'Arten_'
'Argument'
'Are'
'Arbeitsplatz'
'Arbeitsp'
'Arbeitsm'
'Arbeitnehmer'
'App'
'Anträge_'
'Anliegen_'
'Anl'
'Americans_'
'Ale'
'Aktionsplan_'
'Afrika'
'ALDE_'
'AL'
'55_'
'500_'
'35'
'33_'
'16'
', '
'+'
'", _'
' — _'
'üng'
'üll'
'überwachen_'
'überwach'
'übernommen_'
'überleg'
'überf'
'überein'
'öste'
'öse'
'ökonomische'
'öh'
'è'
'äßig'
'äußerster_'
'äußer'
'äumen_'
'ätig'
'ässig'
'änk'
'änische'
'ält'
'ähnlich'
'ägt_'
'äftig'
'á_'
'á'
'ßnahmen_'
'Überw'
'Österreich_'
'zügig'
'zählen_'
'zweiter_'
'zweifellos_'
'zustellen_'
'zust'
'zung_'
'zunehmend_'
'zunehmen_'
'zukünftig'
'zugute_'
'zuer'
'zt_'
'zige'
'zig_'
'zepta'
'zellen'
'zeichn'
'zahl'
'yb'
'ya_'
'worse_'
'worldwide_'
'woh'
'wit'
'wirksame_'
'wirkliche_'
'wiesen'
'wiederholt'
'whatever_'
'wenigsten'
'wenige_'
'welfare_'
'welcher_'
'weite_'
'weig'
'weak'
'wea'
'watch'
'wasser'
'ware_'
'ward_'
'wan'
'wages_'
'vorschlag_'
'vorrangig'
'vorha'
'vorgeschlagene_'
'voranzu'
'vollen_'
'vollem_'
'vol'
'vis_'
'vio'
'viele'
'viel'
'verwi'
'verwe'
'verwalte'
'vertrag'
'verschärft_'
'verringern_'
'verne'
'vern'
'verloren_'
'verlassen_'
'verl'
'verkehrs_'
'verkehrs'
'verhältnis'
'verfa'
'vere'
'verbreit'
'verantwortlich_'
'vent'
'ven'
'veh'
'vat'
'varia'
'var'
'valu'
'uv'
'usual_'
'usse'
'uss'
'urte'
'ursprünglichen_'
'ursprünglich'
'urse'
'urgency_'
'uphold'
'unw'
'unterz'
'untersuch'
'unterschiedlich_'
'unterge'
'untere'
'unt'
'unmittelbare'
'unmittelbar_'
'unifi'
'ungswe'
'ungssystem'
'ungss'
'uneingeschränkt_'
'undi'
'undertakings_'
'unanimously_'
'unabhängig_'
'umso_'
'umgehen'
'umfassender'
'umfassende_'
'ume'
'ulta'
'uli'
'uge'
'ufe'
'uct'
'uber'
'ual'
'tür'
'tü'
'tzen_'
'tz'
'tut'
'ture_'
'ttl'
'tten_'
'trifft_'
'treib'
'travel_'
'transpos'
'transatlantischen_'
'transa'
'trac'
'town'
'tourism_'
'topic_'
'ton_'
'tliche_'
'theor'
'textile'
'tete_'
'ters'
'terrorist'
'territories_'
'tens'
'tem'
'tellung_'
'tellen_'
'teile_'
'tehen'
'technische_'
'taxes_'
'tat'
'tankers_'
'systematic_'
'systemati'
'syn'
'swi'
'swei'
'svors'
'sverfahren_'
'surr'
'surp'
'supplie'
'supervis'
'suggestions_'
'such'
'successes_'
'success'
'stung'
'stunde_'
'students_'
'struktur'
'struck_'
'stronge'
'strie'
'stric'
'strategischen_'
'strategi'
'stelle_'
'stei'
'stattfindet_'
'stands_'
'ssystem'
'ssen'
'sse_'
'sra'
'spu'
'spielt_'
'spi'
'spezifischen_'
'spent_'
'soweit_'
'sorgfältig'
'somewhat_'
'solches_'
'sl'
'sition'
'silen'
'sierung_'
'sicht'
'sicherstellen_'
'shop'
'ships_'
'shing'
'shed_'
'sharing_'
'shap'
'sfähigkeit_'
'sexual_'
'setz'
'sensib'
'senken_'
'sell'
'seit'
'schätz'
'schwäche'
'schwierige'
'schwerwiegende'
'schwa'
'schung_'
'scht'
'schrittweise_'
'scher_'
'schedule'
'schaften_'
'sca'
'satisfied_'
'sake_'
'sag'
'räger'
'runde'
'rul'
'rte_'
'rseits_'
'rom'
'rol'
'ritt'
'rigo'
'rfe'
'revers'
'return'
'restrictive_'
'resse'
'resist'
'republi'
'representation_'
'reporting_'
'replace'
'repl'
'renew'
'rend'
'religiöse'
'reli'
'relative'
'relate'
'rejecti'
'reiterate_'
'rein_'
'reichen_'
'regardless_'
'reflect'
'referring_'
'referendums_'
'reduced_'
'rect'
'recommend'
'recip'
'realistic_'
'realis'
'reactions_'
'rdin'
'rder'
'rc'
'rational'
'ration_'
'ratif'
'rant'
'racism_'
'rachten_'
'rab'
'quent'
'quellen_'
'que'
'quarter'
'quantities_'
'qualität_'
'qualitative_'
'py'
'put'
'push'
'punkt_'
'pun'
'public'
'pt_'
'psych'
'präsent'
'provi'
'proved_'
'prove'
'prop'
'proof_'
'promises_'
'prohibit'
'profi'
'privatis'
'priorit'
'prinzip'
'previously_'
'prevent'
'prevail'
'president'
'premature'
'prejudice'
'pragmati'
'pped_'
'possibilities_'
'pon'
'poll'
'politic'
'plä'
'players_'
'pl'
'pipeline_'
'peri'
'pekt'
'ped'
'peaceful_'
'peace'
'pe_'
'pass'
'partnerships_'
'parlamentarischen_'
'pari'
'pain'
'oversi'
'overcome_'
'ount'
'ound'
'ots_'
'orientiert'
'ordinar'
'ordin'
'order'
'orb'
'oppose_'
'opfer'
'operate_'
'open'
'oo'
'ongoing_'
'omin'
'om_'
'olution'
'ol_'
'ogen'
'offiziellen_'
'office_'
'offensichtlich_'
'offenbar_'
'occupied_'
'observed_'
'observations_'
'nötige'
'numbers_'
'ntly_'
'ntit'
'nth_'
'nter'
'none'
'nommen_'
'nnung_'
'nken'
'nisse'
'niemand_'
'ni_'
'nevertheless_'
'neu'
'netze'
'ners'
'neighbourhood_'
'neid'
'nei'
'negotiation_'
'neglect'
'ndl'
'ndin'
'nce'
'name'
'nachdrücklich_'
'mündlichen_'
'murder'
'multilaterale'
'moved_'
'mot'
'moral_'
'mmt_'
'millions_'
'migra'
'mie'
'metr'
'met'
'mes_'
'medical_'
'mediat'
'mbl'
'maßen_'
'maß'
'mark'
'map_'
'mandat'
'manchmal_'
'mals_'
'malige'
'maintaining_'
'lying_'
'lungen_'
'losing_'
'lose'
'looked_'
'locat'
'llschaft'
'll'
'live'
'litik_'
'list'
'lings'
'lige'
'lig'
'lies_'
'lernen_'
'lend'
'lement'
'leis'
'legte'
'lecht'
'lebenslange'
'leb'
'lbe'
'lay_'
'late'
'lass'
'lant'
'langfristige_'
'lack'
'käm'
'kurzfristig'
'kultur'
'ktor'
'kte_'
'kri'
'krank'
'konstitutionelle'
'kon'
'kom'
'ko_'
'klein'
'kis'
'kee'
'kau'
'kamen_'
'kale'
'ka_'
'justify_'
'juris'
'judgment'
'jenen_'
'jegliche'
'iving_'
'ium_'
'itt_'
'itiv'
'iter'
'items_'
'italienischen_'
'isla'
'ischer_'
'isch_'
'irgendeine'
'ional'
'invo'
'intr'
'interessen_'
'intellectual_'
'integrier'
'institution'
'inspection_'
'insist_'
'inn'
'inier'
'inha'
'ingly_'
'inform_'
'inflation_'
'indication'
'independence_'
'incomp'
'incidents_'
'inc'
'imports_'
'impo'
'imin'
'ils'
'illi'
'ill_'
'ilan'
'igu'
'ifen_'
'ießen'
'ieß'
'ient_'
'iehung_'
'iehen_'
'id_'
'ichkeit'
'ice'
'iber'
'ians_'
'hundert'
'hti'
'hrung'
'hrer'
'host'
'hoping_'
'home'
'hohe_'
'hof'
'hob'
'hnt'
'hit_'
'historische_'
'historic_'
'hinein'
'hierbei_'
'heutige_'
'heu'
'herrsch'
'hende'
'hed_'
'heb'
'heading_'
'head_'
'hazardous_'
'haushalt'
'haus'
'harmful_'
'harm'
'hang'
'hands_'
'handle_'
'hand'
'hal'
'gungen_'
'guid'
'guar'
'größten_'
'größer_'
'gruppen_'
'grundlage_'
'grund'
'großes_'
'grow'
'grou'
'gro'
'gress'
'grenz'
'greifen_'
'greif'
'gran'
'gradually_'
'governing_'
'governance_'
'gnos'
'gni'
'gna'
'globalis'
'globale'
'glich_'
'gleicher'
'gische'
'gge'
'gezogen_'
'gezielt'
'gewissen_'
'getre'
'getragen_'
'getr'
'geta'
'gesunde'
'gestri'
'gestalten_'
'geso'
'gesetzgeb'
'gesetz'
'gesellschaftliche'
'gesellschaft'
'geschl'
'ges_'
'gering'
'geraten_'
'geprüft_'
'gepr'
'geplant_'
'geor'
'genutzt_'
'gent'
'genauer_'
'genaue'
'genannte_'
'gemeinschaft_'
'gemeinschaft'
'geme'
'gelöst_'
'gehe_'
'geha'
'gegenseitige_'
'gefü'
'gefährdet_'
'ged_'
'gebli'
'gebiet_'
'gebe'
'gari'
'garantiert_'
'gained_'
'gain_'
'fälle'
'functions_'
'function'
'fun'
'fuel_'
'fts'
'ftl'
'frist'
'friends_'
'fortsetzen_'
'fortges'
'forme'
'form'
'fores'
'foods'
'fonds_'
'follows_'
'focuse'
'flichtung'
'flich'
'flexi'
'fiscal_'
'finanziert_'
'finanz'
'fighting_'
'fica'
'festleg'
'festge'
'feeling_'
'feed_'
'farms_'
'far'
'fand_'
'famili'
'falsch_'
'fals'
'fall'
'extensive_'
'exploitation_'
'experiment'
'expected_'
'exist'
'exert'
'exercis'
'exc'
'evi'
'eure'
'eunig'
'etzt_'
'ethode'
'ethnic_'
'esen'
'erörtert'
'erwähnte'
'erw'
'erv'
'erschein'
'ermutig'
'equip'
'environmentally_'
'entzieh'
'entwickelten_'
'entw'
'entspr'
'entscheidenden_'
'entscheidende_'
'entitled_'
'enthaltene'
'entfernt_'
'ensu'
'ensi'
'enjoy_'
'engagi'
'endig'
'endgültigen_'
'endet'
'endeavour'
'enda'
'elsewhere_'
'electora'
'ela'
'eits'
'einräum'
'einhal'
'eingesch'
'eingereicht_'
'eingehend'
'eindeutige_'
'einbezogen_'
'einander'
'eig'
'eichn'
'ehrte'
'ehrlich'
'ehl'
'ehens'
'ehe'
'egt_'
'eer'
'een_'
'eding_'
'ecu'
'economic'
'echen_'
'ecess'
'ec'
'ducti'
'drängen_'
'drastic'
'dramatic'
'drafted_'
'draft'
'domina'
'domestic_'
'dnete'
'dliche'
'diss'
'displa'
'diskutiert_'
'disk'
'disch'
'disadvantage'
'dir'
'diplomat'
'diesbezügliche_'
'dienste_'
'dez'
'dex_'
'design'
'dere'
'dera'
'depth_'
'depo'
'deplo'
'dens'
'demonstrated_'
'demokrati'
'demnächst_'
'dehn'
'decl'
'debating_'
'dauerhafte'
'dates_'
'cy'
'cted_'
'crit'
'cre'
'covered_'
'counter_'
'counter'
'cor'
'coo'
'controll'
'contributed_'
'constr'
'constant_'
'consolidat'
'consistent_'
'consequent'
'conse'
'cons'
'condemn'
'conciliation_'
'concentrat'
'compr'
'complement'
'compet'
'communicat'
'commit'
'commercial_'
'comm'
'collect'
'coherent_'
'coast'
'clothing_'
'clarity_'
'clarification_'
'ckt_'
'cker'
'circu'
'cie'
'chw'
'chung_'
'chs'
'choices_'
'chlä'
'chen'
'chairman_'
'ces'
'certainty_'
'centres_'
'cen'
'cel'
'cations_'
'categor'
'cate'
'cat'
'cast_'
'carbon'
'cam'
'but'
'burn'
'bst'
'broad'
'brief_'
'brauch'
'bracht_'
'bott'
'boa'
'blood'
'blie'
'black'
'bis'
'bind'
'bility_'
'bild_'
'bilateral_'
'bia'
'bewirk'
'bewiesen_'
'beweg'
'bevor'
'betreiben_'
'betrachtet_'
'bet'
'besuch'
'beste'
'besitzen_'
'beschäftigt_'
'bes_'
'benötigen_'
'bemühen_'
'bem'
'behaupten_'
'begründet_'
'begrü'
'begre'
'bedi'
'bedeutenden_'
'bedenk'
'bec'
'beantwortet_'
'beachte'
'beabsichtigt'
'bann'
'awareness_'
'authorise'
'author_'
'auszug'
'ausse'
'ausschl'
'ausr'
'ausgezeichnete_'
'aufrecht'
'aufgeb'
'au_'
'attend'
'attempt'
'atte'
'ators_'
'ative_'
'ationen_'
'aten_'
'assur'
'assume'
'asser'
'assen_'
'arr'
'ard_'
'appro'
'anw'
'anstreben_'
'anstatt_'
'ansprechen_'
'anschließen_'
'annte'
'annt_'
'anke'
'anische'
'ani'
'angewandt_'
'angemessen_'
'angeb'
'anen'
'amp'
'altung'
'allow'
'allgemeine_'
'alist'
'alien'
'alen_'
'aktive'
'agier'
'agg'
'aft_'
'affen'
'administrati'
'adjust'
'adequately_'
'addi'
'achtung_'
'ache_'
'ach_'
'ace_'
'ace'
'accepting_'
'abzulehnen_'
'abw'
'abuse_'
'abhängig_'
'aben_'
'Zypern_'
'Zwei'
'Zust'
'Zeitplan_'
'Zeichen_'
'Wü'
'Währungsunion_'
'Währungs'
'Wähler'
'Work'
'Without_'
'Wissenschaft'
'Wirtschaftspolitik_'
'Wirklichkeit_'
'Will_'
'Who_'
'While_'
'West_'
'Wert_'
'Weltb'
'Weiteren_'
'Weg'
'Wal'
'Wahrheit_'
'Votum_'
'Vorw'
'Vorstellung'
'Vorsitze'
'Vorredner'
'Vork'
'Voraus'
'Volkswirtschaften_'
'Vizepräsident'
'Vitorino_'
'Verwirklichung_'
'Verw'
'Vertretung_'
'Vertretern_'
'Vers'
'Vern'
'Verg'
'Verfassungsvertrag'
'Verbraucherschutz'
'Verbindungen_'
'Ve'
'VP_'
'Urteil_'
'Ursachen_'
'Unsere'
'Unre'
'Unionsbürger'
'Umweltp'
'Umweltausschuss_'
'UE'
'Tunis'
'Tschetschenien_'
'Tru'
'Trotz_'
'Tradition_'
'Tiere_'
'Thirdly_'
'Teilnahme_'
'TA'
'System'
'Syrien_'
'Subsidiarität_'
'Subject_'
'Städte'
'Strukturen_'
'Strategien_'
'Statt'
'Statisti'
'Stat'
'Stabilitäts'
'Sp'
'Seve'
'Serbien_'
'Serb'
'Section_'
'Sec'
'Schulden'
'Schreiben_'
'Schl'
'Schiff_'
'Schie'
'Schaden_'
'Sanktionen_'
'Sam'
'Sah'
'Sachver'
'SV_'
'SA'
'Rücks'
'Richtlinien'
'Rev'
'Rel'
'Regionalp'
'Regime_'
'Regierungschefs_'
'Redu'
'Redebeitr'
'Rechtsgrundlage_'
'Rechnungshof'
'Ratifizierung_'
'Rahmenprogramm'
'Prüfung_'
'Prävention_'
'Profit'
'Produktion_'
'Process_'
'Presidents_'
'Pr'
'Poettering_'
'Platz_'
'Pla'
'Pl'
'Partner_'
'Part'
'Pap'
'Palestine_'
'Paket_'
'PNR_'
'ON'
'Nähr'
'North_'
'Normen_'
'Nonetheless_'
'Nei'
'Mul'
'Mot'
'Morocc'
'Monetary_'
'Modell_'
'Mittelmeer'
'Mitt'
'Mitglieds'
'Mitgliedern_'
'Missbrauch_'
'Minute'
'Ministerrat'
'Minderheit_'
'Min'
'Militär'
'Milch'
'Mexi'
'Methoden_'
'Meer_'
'Mas'
'Marktes_'
'Mandat'
'Maa'
'MED'
'Lö'
'Lärm'
'Luft'
'London_'
'Lin'
'Lie'
'Liber'
'Lib'
'Leistung'
'Late'
'Last'
'Lama'
'Lam'
'Kürzung'
'Kürze_'
'Können_'
'Kultur'
'Kräfte_'
'Krankheit_'
'Kr'
'Konsequenzen_'
'Kluft_'
'Klimawandel_'
'Kat'
'Kar'
'Kapital'
'Kan'
'KOM_'
'Jahr'
'Interinstitution'
'Instrument'
'Institution_'
'Instead_'
'Insgesamt_'
'Import'
'Häfen_'
'Hung'
'Hohen_'
'Hier'
'Heads_'
'Hass'
'Handlung'
'Hand'
'Hai'
'HIV_'
'Gründe_'
'Gruppen_'
'Gruppe_'
'Grundsätze_'
'Grundsätz'
'Grundsatz'
'Grundrecht'
'Großbritannien_'
'Griechenland_'
'Global'
'Gipfel'
'Gil'
'Gewährleistung_'
'Gewä'
'Gewiss'
'Gewerkschaft'
'Gesetze'
'Gesellschaften_'
'Geschäfts'
'Gerechtigkeit_'
'Georgia_'
'Gener'
'Gemeinschaftsm'
'Gemeinsam'
'Geld'
'Geist'
'Gebäude_'
'GS'
'Funktion'
'Freiheiten_'
'Freih'
'Fors'
'Forme'
'Flugg'
'Finland_'
'Fern'
'Februar'
'Far'
'Fang'
'Familien'
'Every_'
'Europa'
'Erwerb'
'Erweiterungs'
'Erkenntnis'
'Erh'
'Erfahrung_'
'Era'
'Equal'
'Entwicklungsa'
'Entschließungen_'
'Entlastung_'
'Entlas'
'Emissions'
'Eli'
'Elemente_'
'Element'
'Ele'
'Einzel'
'Einw'
'Einschränkung'
'Eins'
'Einheit'
'Eingr'
'EP_'
'EP'
'EL_'
'Drogen_'
'Drittstaaten_'
'Dingen_'
'Der'
'Demonstra'
'Decision_'
'Danish_'
'DA'
'Czech_'
'Copenhagen_'
'Cong'
'Col'
'Chairman_'
'Can_'
'COD_'
'CO'
'CNS_'
'CA'
'Britain_'
'Both_'
'Bomb'
'Blick_'
'Binnenmarktes_'
'Bewegung_'
'Bet'
'Best'
'Besorgnis_'
'Bereitschaft_'
'Bem'
'Belgium_'
'Bel'
'Beitrittsverhandlungen_'
'Behinderte'
'Begleit'
'Bedürfnissen_'
'Because_'
'Bau_'
'Bank'
'Ban'
'Außenpolitik_'
'Außenminister_'
'Außen_'
'Autonomie'
'Austr'
'Ausbildung_'
'Ausarbeitung_'
'August_'
'Aufenthalts'
'Au'
'At'
'Asien_'
'Asia_'
'As'
'Arbeitszeit'
'Arbeitsweise_'
'Arbeiten_'
'Ara'
'Anwe'
'Antw'
'Ansch'
'Anpassung'
'Ange'
'Angaben_'
'Andr'
'Amerika_'
'Am_'
'Alters'
'Alte'
'Alt'
'Allow_'
'Allgemeinen_'
'Albani'
'Aktion_'
'Ai'
'Achtung_'
'Abw'
'Abt'
'Abkommens_'
'Abgesehen_'
'ASE'
'AN'
': '
'98_'
'97_'
'96_'
'9'
'65_'
'53'
'52_'
'47_'
'44_'
'43_'
'39_'
'38_'
'34_'
'195'
'04_'
'...'
', '_'
'))_'
'%'
' [_'
'„_'
'“, _'
'’ – _'
'ürlich'
'ürf'
'ünstig'
'ünsch'
'üllung_'
'ührung'
'üger'
'übt'
'übertragen_'
'überst'
'überschreiten_'
'überprüft_'
'überprüfen_'
'überlassen_'
'ú'
'öße'
'österreichischen_'
'örd'
'önlichkeit'
'öne'
'öffnen_'
'öffentlich_'
'äum'
'ässer'
'ären_'
'äng'
'ändig'
'änderung_'
'ändert'
'änden_'
'ämpft_'
'ähr'
'ähnliche_'
'ähig'
'ädig'
'äche'
'Überzeugung'
'Überleben'
'Übergang_'
'Überg'
'Öl_'
'Äußerungen_'
'zz'
'zwischenstaatlichen_'
'zweifel'
'zuwe'
'zuteil'
'zusammenge'
'zur'
'zuni'
'zunehmende'
'zuläss'
'zle'
'zl'
'zis'
'ziert'
'zentrale_'
'zeiten_'
'zeil'
'ypri'
'yi'
'xim'
'würdige'
'wünschte'
'wünschenswert_'
'wöhnlich'
'ws_'
'wors'
'worrying_'
'word'
'woo'
'wirtschaftlich_'
'wirksamer_'
'wirk'
'wing_'
'wiederh'
'widerspr'
'wic'
'whereby_'
'west'
'welcomed_'
'welche'
'weiterge'
'wandel'
'wait_'
'wahren_'
'wage'
'vorschr'
'vorschlägt_'
'vorschläge_'
'vorliegen_'
'von'
'vollzieh'
'vollständig_'
'vollkommen_'
'voice'
'voca'
'visited_'
'virtue'
'violent_'
'vid'
'vest'
'verändert_'
'verzöger'
'verzeichne'
'verwenden_'
'verweise'
'verweiger'
'verwaltung_'
'verursachte'
'vertreten'
'vertrau'
'verstärkte_'
'verstärken_'
'versicherung'
'versi'
'versetzt_'
'vers_'
'verr'
'vermieden_'
'verlänger'
'verlie'
'verlangen_'
'veri'
'verheerend'
'verbundenen_'
'verbindliche'
'verbindlich_'
'verbind'
'ventions'
'vely_'
'ved_'
'utz'
'utt'
'uten_'
'usually_'
'ust_'
'usschuss'
'uses_'
'users_'
'usel'
'use'
'usc'
'usal'
'ured_'
'urb'
'upte'
'updat'
'unzulä'
'unverzüglich'
'unterscheiden_'
'unterliegen'
'unterbreite'
'unp'
'unnötig'
'unm'
'unlike_'
'unkt'
'universal_'
'univers'
'ungsv'
'ungspro'
'ungsp'
'ungsm'
'ungeachtet_'
'undu'
'undoubtedly_'
'understanding_'
'unda'
'uldige'
'ulde'
'ugen'
'uelle_'
'ucher'
'uch_'
'ub_'
'täusch'
'täts'
'täglich'
'tzu'
'tzte'
'tzi'
'ty'
'twenty_'
'turning_'
'turn'
'tte_'
'tschaft'
'tren'
'trei'
'treffen'
'treat'
'translation'
'transition'
'tragi'
'traditionell'
'tough'
'tot'
'toleran'
'toff'
'tite'
'tisch_'
'tir'
'tik'
'tief'
'tical'
'tia'
'ti_'
'threatened_'
'threaten'
'tho'
'third'
'them'
'thanking_'
'tha'
'tfertig'
'texts_'
'teur'
'territorial_'
'tern_'
'tellt_'
'telli'
'telle'
'television_'
'telephone'
'tee'
'technologie'
'technisch'
'teach'
'taxpayers_'
'taxation_'
'tausend'
'tausch'
'tat_'
'tant'
'tag'
'sz'
'sympathy_'
'symboli'
'swerte'
'sustainability_'
'suspend'
'suspe'
'surviv'
'surprise'
'surely_'
'supranational'
'sun'
'sum_'
'suitabl'
'suggests_'
'succeed_'
'stü'
'stärkere_'
'studies_'
'strukturen_'
'strukturelle'
'strikt'
'strike'
'strictly_'
'strict_'
'stress'
'strenger'
'streck'
'stran'
'str'
'stop'
'stoffe_'
'stische_'
'stisch'
'stimul'
'sterb'
'stellte_'
'stay_'
'statute_'
'stations_'
'staltung'
'stable_'
'stab'
'staatliche'
'staate'
'ssl'
'ssin'
'sprachen_'
'spon'
'spite_'
'spflicht_'
'spezifische_'
'speziell_'
'speedi'
'speed'
'speaker_'
'soziale'
'son'
'someone_'
'solve_'
'solid'
'sole'
'sohn'
'societies_'
'smoke'
'smo'
'sman_'
'ska'
'sk_'
'sive_'
'sitzung_'
'sischen_'
'sink'
'signs_'
'signi'
'siehe_'
'side'
'sibl'
'shares_'
'shar'
'sha'
'sexuellen_'
'severe_'
'seven_'
'setzung'
'serve'
'sentence'
'sens'
'select'
'seite'
'sein'
'seas'
'scienti'
'schwere_'
'schwer_'
'schul'
'schrei'
'schaftliche'
'sceptic'
'sav'
'sau'
'satz_'
'rö'
'rweise_'
'rwe'
'rvati'
'russischen_'
'running_'
'rungs'
'rund_'
'rum'
'ruf'
'rtun'
'rtschaft'
'rten_'
'rsel'
'rozess'
'rov'
'room_'
'rolle_'
'rogramm_'
'rne'
'rleg'
'risi'
'rim'
'richtung_'
'richte'
'rgen'
'revol'
'revisi'
'retirement_'
'retain_'
'resulting_'
'result'
'restructuring_'
'restrict'
'respond'
'respektieren_'
'respect'
'reso'
'residence_'
'reserves_'
'rer_'
'requiring_'
'replace_'
'rent'
'reliable_'
'relativ_'
'reitungen_'
'reine'
'reifen'
'reichend'
'reh'
'regulate'
'regrettabl'
'registered_'
'regimes_'
'regelungen_'
'regeln_'
'refo'
'recognis'
'rechtliche'
'rechtfertig'
'rebe'
'reass'
'reale'
'react'
'rch'
'rbe'
'raum_'
'ratifizieren_'
'ratified_'
'ratification_'
'rapidly_'
'raph'
'rang'
'ralis'
'ral_'
'ral'
'rak'
'radio'
'radi'
'racht_'
'race'
'quotas_'
'quat'
'quantitative_'
'qualifizierte'
'qualified_'
'pursu'
'punkt'
'pul'
'ptu'
'pti'
'pt'
'pse'
'prozesse'
'providers_'
'prosecut'
'prompt'
'promised_'
'produkti'
'productivity_'
'productive_'
'producing_'
'producer_'
'processes_'
'proceed_'
'proce'
'problematisch'
'private'
'prisoner'
'pris'
'prin'
'prime_'
'primary_'
'primarily_'
'pretext_'
'prechen_'
'precaution'
'prec'
'prache'
'ppi'
'powerful'
'pou'
'pot'
'postpone'
'pose_'
'popul'
'poorest_'
'polnischen_'
'ple_'
'playing_'
'planung_'
'plants_'
'pillar_'
'pilla'
'pil'
'pid'
'pic'
'phe'
'pharmaceutical_'
'pha'
'pfung_'
'pert'
'persuade_'
'permit'
'percent'
'penalty_'
'pel'
'pekti'
'ped_'
'patients_'
'passieren_'
'passed_'
'passe'
'participat'
'parents_'
'parat'
'param'
'overs'
'overlook'
'outstanding_'
'outset_'
'outlined_'
'outline'
'outbreak'
'ott'
'otherwise_'
'ossenheit_'
'orti'
'orn'
'oris'
'origin'
'orge'
'organisi'
'organis'
'ordnung'
'ordnet'
'optimis'
'oper'
'ontroll'
'onische'
'oni_'
'onal_'
'onal'
'ommenen_'
'omis'
'olo'
'olence'
'okk'
'ois'
'oi'
'ohne'
'ogen_'
'offering_'
'offene_'
'occurre'
'occur'
'occupation'
'occasion_'
'obt'
'obstacles_'
'observation_'
'object'
'nützlich'
'näher_'
'nä'
'ntra'
'nswerte'
'nstr'
'notwendigen_'
'noticed_'
'north'
'nne_'
'nko'
'niu'
'nism'
'nine'
'nieder'
'ngt_'
'nging_'
'ngen'
'nez'
'news_'
'new'
'net_'
'nes_'
'nergie_'
'nel_'
'nehmer_'
'nehmer'
'nehm'
'ndig'
'ndelt'
'nal_'
'nahe_'
'nachhaltig'
'mündliche_'
'mü'
'möge_'
'mutz'
'mt_'
'mt'
'mountain'
'monopoli'
'mone'
'modernisier'
'mode'
'modal'
'mod'
'mobility_'
'mittl'
'mitt'
'mitge'
'mission'
'missbr'
'misc'
'minute_'
'minorities_'
'ministers_'
'minimal_'
'ming_'
'mines_'
'minen_'
'minelle'
'mine'
'minde'
'minate'
'merk'
'mere_'
'mercury_'
'menschliche_'
'mel'
'meiste'
'mee'
'med_'
'meant_'
'mean'
'may'
'materials_'
'match'
'markt'
'margin'
'manufacturing_'
'manufacturer'
'manche_'
'manage'
'lüss'
'löst_'
'läng'
'ländliche_'
'lux'
'ltung'
'lter'
'ltens'
'loss_'
'losigkeit_'
'los'
'lor'
'looks_'
'logisti'
'logisch'
'logi'
'lobb'
'ln'
'llo'
'lk'
'listened_'
'lisier'
'lion'
'linguistic_'
'like'
'liferation_'
'life'
'lif'
'lib'
'letzte'
'lesson'
'less'
'leistung'
'leicht_'
'leichen_'
'lei'
'lehn'
'legung'
'leer'
'lebende'
'leav'
'learning_'
'leadership_'
'leader_'
'lay'
'launched_'
'laun'
'latest_'
'last'
'largest_'
'lage_'
'lag_'
'lad'
'kürzlich_'
'kurs'
'ktr'
'kti'
'kräfte'
'kritische'
'kritis'
'krise_'
'kreis'
'kraft_'
'kos'
'korrigier'
'koordinier'
'konz'
'konstruktive_'
'konstruktiv'
'konsequente'
'konse'
'konkreter_'
'konkret_'
'komplizierte'
'komple'
'kommerzielle'
'kn'
'kling'
'killing_'
'kept_'
'kel_'
'keine'
'kaufen_'
'kate'
'katastrophen_'
'kapital'
'justification_'
'jun'
'joining_'
'ji'
'jekt_'
'jahr_'
'itu'
'ition'
'iting_'
'isti'
'isten_'
'istan'
'issued_'
'issen_'
'ison'
'isolier'
'ish_'
'ish'
'isen_'
'irtschaft'
'irr'
'irischen_'
'iri'
'ire_'
'ire'
'ious'
'investigation_'
'intervene_'
'interpretati'
'international'
'interinstitutionelle'
'interessanten_'
'intensive_'
'intensive'
'intensiv'
'integrierte'
'insufficient_'
'instrument'
'institutionellen_'
'institution_'
'install'
'initiat'
'initi'
'ining_'
'inhaltlich'
'inhab'
'infringement_'
'informieren_'
'informa'
'inform'
'ines'
'inen'
'individuals_'
'indicate'
'incredibl'
'increases_'
'incentive_'
'ince'
'inadequa'
'importantly_'
'imperialis'
'immunit'
'imm'
'ildung'
'ila'
'ij'
'ignoriert_'
'igi'
'ight_'
'iger_'
'ifi'
'ießung'
'ierungen_'
'ier_'
'ient'
'ienst'
'iebe'
'ider'
'identif'
'iden'
'icke'
'icide'
'ically_'
'ical_'
'ible_'
'iation_'
'iar'
'hör'
'höhe'
'häufig'
'hängt_'
'hundred_'
'human'
'hr_'
'hour_'
'horr'
'hopes_'
'honour'
'hoher_'
'hmen'
'historisch'
'hinweg'
'hinter'
'hingegen_'
'hide'
'het'
'herzlich_'
'hervorge'
'herrschen'
'hergestellt_'
'hence_'
'helped_'
'hec'
'hauptsächlich_'
'hau'
'harte'
'harmonise_'
'hardly_'
'han'
'ham'
'gültig'
'gä'
'gue_'
'guardian_'
'gründlich'
'gründen_'
'gru'
'großem_'
'großartig'
'groundwater_'
'griechische_'
'grasp'
'governmental_'
'gone_'
'gm'
'gliche'
'gli'
'glaubwürdig'
'geäußerten_'
'geändert_'
'geä'
'gewähren_'
'gewisser'
'gewiss_'
'gewinn'
'gewer'
'gesundheit'
'gesche'
'gers_'
'geringer'
'gerichtshof'
'gerichtete'
'gericht'
'geri'
'gerechten_'
'gerech'
'gens'
'gemi'
'geln'
'gelingen_'
'geld'
'geistig'
'gegenübers'
'gefördert_'
'gefr'
'gefa'
'gedenkt_'
'gebilligt'
'fördert_'
'för'
'fut'
'furthermore_'
'function_'
'fulfill'
'fulfil'
'fuels_'
'ftung'
'fte'
'friend'
'fried'
'freu'
'frei_'
'freedoms_'
'frank'
'foundation_'
'fortunate'
'formuliert_'
'formulier'
'fol'
'flü'
'fleisch'
'fisch'
'fis'
'finnische'
'finanzier'
'film'
'fil'
'fig_'
'fift'
'fft_'
'ffi'
'festzustellen_'
'feststellt'
'fests'
'fertig_'
'ferenz'
'fehl'
'federal_'
'fea'
'favourable_'
'favour'
'fassen_'
'faith'
'fail'
'ezi'
'ey_'
'extraordinary_'
'externe'
'exte'
'expli'
'experts_'
'experience'
'expensive_'
'expenses_'
'expect'
'expe'
'expand'
'exemp'
'exclusively_'
'excluded_'
'excessive_'
'evident_'
'evening_'
'eutig'
'europäisches_'
'eur'
'essentially_'
'ese'
'erzeugt'
'erzeug'
'erweiterte'
'erve'
'erten_'
'erte_'
'erstens_'
'ersch'
'erregend'
'erpr'
'erneu'
'erleichter'
'erlang'
'erklärte_'
'erk'
'erie'
'erhält_'
'erhoben_'
'erheblichen_'
'erhe'
'ergänzen'
'erge'
'eres_'
'erate'
'erat'
'enzial_'
'envi'
'entscheidend'
'entgegen_'
'entail'
'enschaft'
'enne'
'enla'
'eni'
'enhance_'
'enger_'
'energie'
'endo'
'endgültig'
'ende'
'encou'
'empt'
'employed_'
'empha'
'emb'
'elt_'
'elig'
'eld_'
'eisung'
'eis'
'einzelne'
'eintrete'
'einr'
'eink'
'eingele'
'einfachen_'
'eilungen_'
'eigene'
'eidung_'
'eht_'
'ehrgeizige'
'egung_'
'eg'
'effektiver'
'effektiv_'
'echend'
'eau_'
'east'
'ease'
'dus'
'durchzuführen_'
'durchzu'
'dum'
'drive'
'dritte_'
'drink'
'drig'
'drawing_'
'doubt'
'doppelte'
'door'
'dom'
'dokument'
'doct'
'dm'
'distribution_'
'discre'
'disco'
'disagreement'
'disagree_'
'disabled_'
'dignity_'
'dieselbe'
'diesbezüglichen_'
'dien'
'didat'
'dev'
'detect'
'desto'
'desp'
'designation'
'descri'
'derogations_'
'derartige'
'dependence_'
'departments_'
'deny'
'deni'
'demonstration'
'democrati'
'democra'
'demanding_'
'deleg'
'del'
'definiti'
'definiert'
'defend'
'deepe'
'dedicat'
'decre'
'decke'
'dec'
'debated_'
'deaths_'
'dankbar_'
'dank_'
'danach_'
'dam'
'dacht'
'customs_'
'cult'
'culat'
'cul'
'ct_'
'criticise'
'criminal'
'crimes_'
'cri'
'creat'
'covering_'
'cost'
'cos'
'corruption_'
'corporat'
'cope_'
'cooperat'
'convey'
'conti'
'content'
'contact_'
'consultati'
'constitut'
'constantly_'
'considerably_'
'consi'
'consci'
'congratulations_'
'confine'
'conceiv'
'compulsory_'
'comple'
'complain'
'compete_'
'compatibility_'
'commun'
'commend'
'combine'
'col'
'coherence_'
'cod'
'clos'
'clo'
'clients_'
'cli'
'clearer_'
'classi'
'class'
'cks_'
'civilis'
'civilian_'
'cion'
'christliche'
'choice_'
'chlich'
'chine'
'chas'
'characteristic'
'character'
'chain_'
'cepti'
'central_'
'cei'
'ced'
'cata'
'carrying_'
'card_'
'cancer_'
'buy_'
'bung_'
'budgets_'
'bs_'
'brä'
'broade'
'bring'
'briken_'
'breiter'
'breach'
'br'
'bound_'
'boost_'
'blocki'
'blind_'
'blin'
'blick'
'biot'
'biodiversity_'
'binding_'
'bie'
'bezieh'
'bewältig'
'bewu'
'bewi'
'bewertung_'
'beweist_'
'bewegen_'
'bewe'
'betreffend_'
'bestimmter_'
'beste_'
'besonderer_'
'beseitig'
'bese'
'beschränk'
'beschrei'
'beschloss'
'beruhen'
'berufliche'
'berate'
'beobachten_'
'benutz'
'believes_'
'belie'
'beleb'
'bekräftigt_'
'bekannte'
'beka'
'beizutragen_'
'beispielhaft'
'behinder'
'behandeln_'
'begrüßt_'
'begrenzt'
'befürwortet_'
'befr'
'beendet_'
'bedroht'
'bedeut'
'bedauerlich_'
'bedauere_'
'beantworten_'
'beachten_'
'banks_'
'background'
'aw'
'autonomy_'
'automati'
'author'
'austausch_'
'aussp'
'ausschusses_'
'ausschließlich_'
'ausreichende_'
'ausges'
'ausgerichtet'
'ausgelöst_'
'ausgef'
'ausführ'
'auseinander_'
'ause'
'aun'
'aufweis'
'auftr'
'auft'
'aufgew'
'aufget'
'aufgefordert_'
'audit'
'ator'
'ato_'
'ative'
'ation'
'ate'
'asst'
'assa'
'ass_'
'aspect_'
'asp'
'artificial'
'art_'
'arrested_'
'arrest_'
'armen_'
'armed_'
'ark'
'aritäts'
'arises_'
'argue_'
'ards_'
'arbeite'
'arab'
'appropriat'
'approaches_'
'appointment'
'applicable_'
'apparent'
'ape'
'anzuwenden_'
'anzunehmen_'
'anz_'
'anwesend_'
'antwort'
'antie'
'anst'
'anschl'
'ano'
'anni'
'annehmen_'
'ann_'
'anis'
'angestre'
'angemessenen_'
'angeme'
'angehen_'
'angeg'
'ane'
'andel'
'anda'
'ama'
'alter'
'alongside_'
'alls_'
'allowing_'
'allocated_'
'allgemein_'
'alleg'
'alised_'
'alia'
'akti'
'aka'
'airports_'
'ah_'
'aggressi'
'agent'
'afford'
'affecting_'
'affairs_'
'adver'
'advance_'
'advance'
'add'
'ad_'
'acting_'
'act'
'aci'
'achun'
'achtet_'
'acht'
'achen_'
'accus'
'accord'
'accom'
'abzuw'
'abstain'
'absolut_'
'abschließend_'
'ablehnen'
'abkommens_'
'abilit'
'abil'
'abgestimmt_'
'abandon'
'Zwar_'
'Zuwanderer'
'Zuständigkeiten_'
'Zusch'
'Zugleich_'
'Zugeständnisse_'
'Zucker_'
'Zoll'
'Ziels'
'Zielen_'
'Zerstörung_'
'Zentrum'
'Zahl'
'Wirtschaftswachstum_'
'Widerstand'
'Wettbewerbs_'
'Wesen'
'Weißbuch_'
'Web'
'Watson_'
'Wachstumsp'
'Wachs'
'Völkerrecht'
'Vormittag_'
'Vorhaben_'
'Vorha'
'Versuch'
'Verständnis_'
'Versorgung_'
'Vermi'
'Verletzung_'
'Verl'
'Verkehrst'
'Verhältnis'
'Verge'
'Vereinigung'
'Vereinigte_'
'Verantwortungs'
'Verantwortlich'
'Veran'
'Verabschiedung_'
'Valencia'
'Ursprungs'
'Unterschied_'
'Unternehmer_'
'Unt'
'Uns_'
'Ungl'
'Unfälle'
'Under_'
'Umwelts'
'Umf'
'Tätigkeiten_'
'Ty'
'Tw'
'Tur'
'Treibhausgase'
'Transport'
'Tol'
'Tod'
'Time_'
'Thursday_'
'Tho'
'Textil'
'Tempo'
'Telekommunikation'
'Technologie'
'Tausende'
'Tats'
'Tages'
'TS'
'TR'
'Süden'
'Symbol'
'Swi'
'Stunde_'
'Struktur'
'Straftat'
'Stimmen_'
'Stimme'
'Stadt'
'Stabilitätspakt'
'Staatsan'
'Staats_'
'Sport'
'Spi'
'Special_'
'Sozialpartner'
'Son'
'Solana_'
'Socialists_'
'Slow'
'Six'
'Sitzungsperiode_'
'Sitz_'
'Sind_'
'Sicher'
'Selbst_'
'Sektors_'
'Sektoren_'
'Schö'
'Schä'
'Schri'
'Scho'
'Schic'
'Sau'
'Sar'
'Sach'
'SP'
'SC'
'Rund'
'Ruhe'
'Riv'
'Repres'
'Renten'
'Regimes_'
'Refer'
'Ref'
'Redner'
'Rechtsvorschrift_'
'Rechtss'
'Rechtsp'
'Rechtsakt'
'Rech'
'Reaktion'
'Ratspräsident'
'Rass'
'Rahmens_'
'RE'
'Purvis_'
'Prozesse'
'Protokoll'
'Protection_'
'Projekt'
'Professor_'
'Privatisierung'
'Prim'
'Premierminister_'
'Preis_'
'Praxis_'
'Praktiken_'
'Pos'
'Politiker_'
'Ph'
'Pflicht_'
'Petitions_'
'Personen'
'Partner'
'Parliamentary_'
'Parlamentsa'
'Parag'
'Pan'
'Pakt_'
'PA'
'Otherwise_'
'Other_'
'Ost'
'Organen_'
'Optionen_'
'Op'
'Offenheit_'
'Off'
'Northern_'
'Nord'
'Nichts'
'Neue'
'Neua'
'Nahen_'
'NL_'
'Mög'
'Mut'
'Morgen_'
'Monte'
'Monopol'
'Mold'
'Modell'
'Mobili'
'Mitte_'
'Mitgliedstaat'
'Mitarbeiter'
'Mission'
'Milli'
'Mich'
'Menschenrecht'
'Maßst'
'Mat'
'Martin'
'Mart'
'Mandel'
'Malta_'
'Luxembourg_'
'Luftverkehr_'
'Luftfahrt'
'Linke'
'Licht'
'Liberalen_'
'Leute'
'Letzte'
'Lernen_'
'Leon'
'Leistungen_'
'Lehre'
'Legislativ'
'Lebensmittelsicherheit_'
'Lebensmittel_'
'Law_'
'Lat'
'Kön'
'Kur'
'Kroatien'
'Krisen_'
'Kri'
'Kraftstoff'
'Korea_'
'Kooperation_'
'Konvergenz_'
'Konsultation_'
'Kons'
'Kongo_'
'Konflikte_'
'Kommunikation_'
'Komm'
'Kol'
'Kohle'
'Kh'
'Ken'
'Kategorie'
'Kapazität'
'Kandidatenländer'
'Kana'
'Kampagne'
'Jarzembowski_'
'Jahrhundert_'
'Jac'
'Ja_'
'Israel'
'Iraqi_'
'Ir'
'Investitions'
'Invest'
'Internationalen_'
'Intergovernmental_'
'Interessen'
'Institut'
'Insta'
'Insofern_'
'Inkrafttreten_'
'Inhalt'
'Indikator'
'Inde'
'Impf'
'Imp'
'Ihre'
'Hungers'
'Hungary_'
'Hunde'
'Hum'
'Hol'
'Hohe'
'Hilf'
'Herzego'
'Helsinki_'
'Hav'
'Haushaltsk'
'Hauses_'
'Hause_'
'Hab'
'Haa'
'Gua'
'Grundwerte_'
'Gri'
'Gremi'
'Greens_'
'Gre'
'Govern'
'Glauben'
'Generalsekretär'
'Gebietskörperschaften_'
'Gast'
'Ganz_'
'Galileo_'
'GMO_'
'GAP_'
'Fälle_'
'Friedens_'
'Free_'
'Frattini_'
'Fourth'
'Folgendes_'
'Folge'
'Flughäfen_'
'Fle'
'Finanzmittel'
'Finanziellen_'
'Finanzielle_'
'Ferrer'
'Fer'
'Fehlen'
'Federation_'
'Familien_'
'FI'
'External_'
'Existenz_'
'Eva'
'Europ'
'Erika_'
'Erfordernissen_'
'Entwicklungsländer_'
'Entwicklungen_'
'Entsch'
'Ents'
'Energiever'
'Empf'
'Elektr'
'Eis'
'Einwohner_'
'Einst'
'Einfuhr'
'Einf'
'Eind'
'Ei'
'Ehre_'
'Education_'
'EU'
'ECB_'
'Durchs'
'Dritt'
'Dokumente'
'Dienste'
'Dialog'
'Dia'
'Des_'
'Democrat'
'Darfur_'
'Darau'
'Danke_'
'Dan'
'Dal'
'Could_'
'Costa_'
'Cooperation_'
'Conf'
'Colom'
'Citizens_'
'Chinese'
'Centre_'
'Cau'
'Büro'
'Bü'
'Burm'
'Bur'
'Bul'
'Brief'
'Bri'
'Branche'
'Bosni'
'Blu'
'Blo'
'Blair_'
'Bezug'
'Bewohner_'
'Bewer'
'Bevölkerung'
'Beurteilung_'
'Betrug_'
'Bestandteil_'
'Besides_'
'Beschl'
'Beruf'
'Berl'
'Berichterstatters_'
'Beobachtungs'
'Belastung'
'Beiträge_'
'Befürchtung'
'Befugnisse_'
'Bedauer'
'Bedarf_'
'Beamte'
'Bay'
'Basi'
'Barr'
'Baltic_'
'BIP_'
'B6_'
'Az'
'Av'
'Ausschüsse_'
'Aufw'
'Auftr'
'Aufforderung_'
'Atlanti'
'Assembly_'
'Argumente'
'Arabi'
'Applause_'
'Any'
'Antr'
'Anspr'
'Ansichten_'
'Anschläge'
'Anschluss_'
'Anpassung_'
'Anmerkung'
'Anlass_'
'Anlage'
'Anhang_'
'Anfragen_'
'Andererseits_'
'Ander'
'American_'
'Alternativen_'
'Alliance_'
'Ak'
'Agriculture_'
'Abstimmungs'
'Abst'
'Abschaffung_'
'Ablehnung_'
'AR'
'AKP_'
'99_'
'93_'
'92_'
'77'
'75_'
'66_'
'59'
'48_'
'42_'
'41'
'2009_'
'17'
'05_'
'01_'
'006'
'002'
'..._'
') (_'
'!'
' .'
' -'
' "._'
'‘_'
'ütz'
'ürzt'
'ümme'
'ügend'
'üche'
'überzeugend'
'überz'
'überwinden_'
'übertri'
'übersch'
'überrascht_'
'übern'
'übermitteln_'
'übergreifende'
'überg'
'übereinstimmen_'
'überdenken_'
'übe'
'ø'
'örung'
'örtlichen_'
'örter'
'öglich'
'öffnet'
'öffentliche'
'äußert'
'äuf'
'ätzlich_'
'äter_'
'äte_'
'äs'
'ängst_'
'änge_'
'ändische'
'ämpfung_'
'älteren_'
'älter'
'älsch'
'ährung_'
'ährt'
'ähl'
'ähe'
'äfte'
'ächtig'
'äch'
'ßte'
'Überlegungen_'
'Überl'
'Übereinkommens_'
'Äußer'
'­ _'
' – '
' %'
'zöger'
'zähl'
'zwischen'
'zwingen'
'zweig'
'zweckmäßig'
'zuw'
'zuver'
'zutr'
'zutiefst_'
'zusätzliche'
'zuständige_'
'zustande_'
'zusammenzuarbeiten_'
'zurückk'
'zungen_'
'zul'
'zukommen'
'zugrunde_'
'zugest'
'zt'
'zon'
'zivile'
'zitiere_'
'zise'
'zifis'
'zierungs'
'ziemlich'
'ziele_'
'zial'
'zer_'
'zentralen_'
'zb'
'zahlung'
'zahle'
'yt'
'yc'
'ximat'
'wür'
'wü'
'wäh'
'worth'
'wort_'
'worr'
'worfen_'
'wonder'
'wohin_'
'wodurch_'
'wn_'
'witnessing_'
'withdrawn_'
'wissenschaftlichen_'
'wissenschaftl'
'wisse'
'wischen_'
'wirtschafts'
'wirt'
'wirksamere'
'wirksam'
'wirklichen_'
'willige'
'wil'
'widme'
'widely_'
'wichtiges_'
'wherever_'
'wettbewerbsfähige'
'wesentliche'
'wendig'
'welcomes_'
'weiten_'
'weight_'
'wed'
'wec'
'weaken'
'wave'
'wars_'
'warning'
'warne'
'wander'
'wait'
'wahrh'
'wage_'
'waffe'
'wachsenden_'
'wachsende'
'vorzus'
'vorstell'
'vorsieht_'
'vorschl'
'vornehm'
'vorn_'
'vorläufige'
'vorliegt_'
'vorliegende_'
'vorhin_'
'vorgetragen_'
'vorgegeben'
'vorg'
'vore'
'vorauss'
'voraus_'
'voransch'
'vollständige_'
'vollständig'
'visual'
'visibl'
'visa_'
'virtu'
'vir'
'vil'
'vielfältig'
'vieler_'
'veränderte'
'verändern_'
'verwirklichen_'
'verwa'
'verurteil'
'verträge_'
'verteidig'
'versu'
'verstärkt_'
'verstärk'
'verständ'
'verstehe_'
'verste'
'version'
'versetzen_'
'verse'
'verschmutz'
'verschl'
'versamm'
'verpflicht'
'vernünftige'
'vernehm'
'verna'
'vermi'
'verme'
'verletzt_'
'verlagerung'
'verkündet'
'verhalten_'
'verha'
'vergleich'
'verfolg'
'verf'
'vereinfach'
'vereinbarte'
'verehrte'
'verbre'
'verbra'
'verboten_'
'verbleiben'
'verban'
'verarbeit'
'verantwortliche'
'verabschiedeten_'
'verabschieden_'
'verab'
'ventu'
'vention_'
'vene'
'vegetables_'
'vast_'
'vary'
'van'
'valid'
'vaccinat'
'va_'
'uu'
'utili'
'ustellen_'
'usst'
'ussi'
'usly_'
'urren'
'urr'
'urop'
'urie'
'uren_'
'ure'
'urc'
'urban'
'unzählige'
'unzureichend'
'unu'
'unterstrichen_'
'unterstreich'
'unters'
'unterr'
'unterl'
'unterh'
'unte'
'unsicheren_'
'unsi'
'unres'
'unr'
'unn'
'unmöglich_'
'unlikely_'
'unity_'
'united_'
'unique_'
'uniform'
'ungsr'
'ungsma'
'ungsk'
'ungsbe'
'unglaub'
'unfor'
'unerlä'
'unei'
'unds'
'undertaking_'
'undertaken_'
'understood_'
'underpin'
'underline_'
'undergo'
'unanimity_'
'unam'
'unab'
'umfasst_'
'umfassend_'
'umfassen'
'umer'
'ulou'
'ulati'
'uin'
'ugu'
'ugnis'
'ud_'
'ucht_'
'tö'
'tätigkeit'
'tätige'
'tätig_'
'tzung_'
'tzt_'
'tzende'
'turned_'
'tungse'
'tungs'
'tun'
'tum_'
'tuffs_'
'tter_'
'tschen'
'tsche'
'trouble'
'tritt_'
'trie'
'tric'
'tribu'
'tria'
'trend_'
'trem'
'treat_'
'travell'
'transnational'
'translat'
'transform'
'transfer_'
'traditionellen_'
'toxi'
'touris'
'totalitäre'
'tor_'
'topic'
'tool'
'toler'
'tli'
'tisi'
'tische_'
'tisch'
'timely_'
'tigkeit_'
'tigen_'
'tieren_'
'threa'
'thoroughly_'
'thi'
'terung_'
'terror'
'territoriale'
'tensi'
'tenden'
'tende'
'temporar'
'tem_'
'tele'
'teil_'
'tei'
'teht_'
'technologisch'
'techni'
'tec'
'team_'
'tch_'
'tbar'
'tb'
'tax'
'tati'
'tate'
'tarif'
'tane'
'tagung_'
'tabl'
'südlich'
'sät'
'systematische_'
'sym'
'swer'
'surveillance_'
'supporter'
'summer_'
'suit'
'suggested_'
'sufficiently_'
'suffered_'
'succeed'
'substitut'
'substanzielle'
'substantially_'
'subject'
'städtische'
'struggle_'
'stro'
'strengthen'
'streit'
'strebe'
'strafrechtliche_'
'stra'
'story_'
'stone_'
'ston'
'stol'
'stock_'
'stli'
'stir'
'stimm'
'stige'
'sthaft'
'stem_'
'stem'
'stee'
'statistics_'
'statisti'
'station'
'stati'
'starken_'
'starke_'
'starke'
'standing'
'standardis'
'stamm'
'ssp'
'ssions'
'ssion_'
'ssier'
'ssib'
'ssene'
'sr'
'spreche'
'sprachl'
'sprachig'
'sprach_'
'sport'
'spiegel'
'spie'
'speeches_'
'spanischen_'
'span'
'souverän'
'sought_'
'sonst_'
'some'
'solved_'
'sold_'
'solch'
'soil'
'sof'
'soeben_'
'soci'
'sobald_'
'smarkt_'
'smaller_'
'slowe'
'slow'
'slos'
'skill'
'sity_'
'situationen_'
'sincere'
'simplify'
'simplifi'
'sieben'
'show'
'shortcomings_'
'shipping_'
'shame'
'shadow_'
'sgr'
'sfre'
'sfonds_'
'seve'
'settlement_'
'sere'
'sentwurf_'
'senior_'
'sem'
'selten'
'selbe'
'secu'
'search'
'sd'
'schöne'
'schädlich'
'schä'
'schwi'
'schwedischen_'
'schutzes_'
'schritt'
'schriftliche_'
'schreck'
'schnellstens_'
'schlicht'
'schlecht_'
'schie'
'schic'
'sches_'
'schaftsab'
'schaff'
'schade'
'scar'
'sbekämpfung_'
'sbed'
'saving_'
'save_'
'sausschuss'
'sar'
'santräge_'
'safe'
'sac'
'sabo'
'rüst'
'ründe'
'röß'
'räume_'
'räu'
'ränk'
'rzeug'
'rw'
'rvi'
'russi'
'rus_'
'rus'
'rum_'
'ruktur'
'rter'
'rtain_'
'rra'
'rose'
'ros'
'roll'
'rog'
'rklärung_'
'rity_'
'rist'
'ringen_'
'rin_'
'rimina'
'rik'
'rigen'
'riff'
'rif'
'riesige'
'revenue'
'reveal'
'reti'
'restriktiv'
'restricted_'
'rest'
'respons'
'respective'
'resol'
'reserve'
'reservations_'
'rese'
'requests_'
'repression_'
'representing_'
'reporte'
'renz'
'rene'
'renc'
'reminded_'
'remarkabl'
'remain'
'relie'
'release_'
'releas'
'relati'
'rej'
'reise'
'reinforce'
'rein'
'reichs'
'reicher'
'regularly_'
'regular'
'registrier'
'registration_'
'regist'
'regionen_'
'regelmäßig'
'refugee_'
'reformi'
'reformen_'
'refers_'
'refer'
'reduziert'
'red'
'recyc'
'recovery_'
'records_'
'recorde'
'record_'
'recommend_'
'reck'
'rechtzeitig_'
'rechten_'
'reagiert_'
'reagiere'
'reaction_'
'react_'
'rdan'
'rbeitung_'
'rba'
'raw_'
'rauch_'
'ratio'
'rati'
'raten_'
'rasche'
'rahmen'
'raging_'
'rag'
'radic'
'quot'
'question'
'quen'
'quar'
'qualifications_'
'pts_'
'prüf'
'prüche'
'präsident'
'pru'
'protest'
'prot'
'prospect'
'properly_'
'propag'
'promi'
'projekt'
'progressi'
'programming_'
'programm_'
'profound_'
'profitab'
'profession'
'prof'
'produzier'
'produkte'
'produces_'
'proc'
'problem'
'prisons_'
'presenting_'
'prescri'
'preparatory_'
'preparations_'
'preliminary_'
'preference_'
'preferabl'
'precede'
'praise_'
'practis'
'pr'
'pping_'
'potenziell'
'potenti'
'post'
'positiven_'
'positiv_'
'port_'
'pornograph'
'popular_'
'poor'
'polit'
'point'
'poc'
'plica'
'plen'
'plays_'
'place'
'pische'
'pira'
'pilot'
'pick'
'physical_'
'pfl'
'pfer'
'pest'
'personenbezogene'
'persist'
'perse'
'perpet'
'perm'
'periode_'
'perfect_'
'pende'
'pecti'
'pec'
'paying_'
'patr'
'patien'
'passiv'
'passenger_'
'pass_'
'partnerschaftliche'
'partly_'
'partic'
'parlamentarische_'
'parallel_'
'palästinensische_'
'paket_'
'pai'
'oßen_'
'ozone_'
'oxid'
'owing_'
'owe_'
'overc'
'outr'
'outer'
'otiat'
'oten'
'oste'
'ost'
'ossene'
'osi'
'osen'
'orum'
'ortun'
'orten_'
'orgung'
'orgnis'
'orge_'
'organisierte'
'organisiert_'
'ordnungsp'
'ordnungsgemäße'
'opti'
'opposite_'
'opponent'
'opoulo'
'opol'
'operab'
'opens_'
'openly_'
'onsten_'
'onia'
'oner'
'onente'
'omi'
'ometer'
'olv'
'olu'
'olgt_'
'older'
'ohol'
'ohle'
'oga'
'offices_'
'offenen_'
'offe'
'odu'
'ociation_'
'ochen_'
'oce'
'obtained_'
'obliged_'
'oblige'
'obligator'
'obli'
'oberste'
'nüpf'
'nöt'
'ny_'
'nuts'
'ntr'
'nte_'
'nse'
'npolitische'
'nov'
'notion_'
'notification_'
'nos'
'normen_'
'nomin'
'nob'
'nni'
'nner_'
'nnen'
'nne'
'nist'
'nin'
'night_'
'nien'
'niedriger'
'niedrig'
'niederländische'
'ngnis'
'nglich'
'nger_'
'nger'
'neutral'
'neten_'
'nest'
'nesses_'
'neighbours_'
'neig'
'nehmbar_'
'negotiating_'
'negotiated_'
'negotiate'
'negativen_'
'necessity_'
'necessarily_'
'nearly_'
'ndung'
'ndt'
'ndet'
'nderten_'
'ndene'
'ncy_'
'nch'
'nau'
'natürlichen_'
'nas_'
'nar'
'nan'
'namik_'
'nacht'
'müss'
'möglichkeit'
'mäßig_'
'mäß_'
'muni'
'multinational_'
'move'
'motion'
'mosph'
'mosexu'
'mord_'
'morat'
'monitored_'
'monat'
'modif'
'moderni'
'moderne'
'moderat'
'mobile_'
'mn'
'mmission'
'mmer_'
'mittleren_'
'mittlere'
'mittels_'
'mitteilen_'
'mittag'
'mitglied'
'misu'
'mistake_'
'missi'
'minor'
'ministeri'
'mind'
'mina'
'mile'
'mid_'
'metsch'
'metri'
'metic'
'meth'
'mess'
'mention'
'mentar'
'menschlichen_'
'mensch'
'meldung'
'mehrfach_'
'mechanis'
'measur'
'mba'
'marked_'
'mari'
'mankind_'
'maintenance_'
'mainstream'
'mail'
'macro'
'machte_'
'lü'
'lösung_'
'läu'
'lär'
'lz'
'lut'
'luss'
'lungs'
'lte'
'lowe'
'losen_'
'lon'
'lokalen_'
'lock'
'loan'
'lo_'
'llu'
'lling_'
'lles'
'liste'
'lise'
'link'
'linie_'
'limit'
'ließen'
'liefern_'
'lied'
'lieber_'
'lieb'
'lie_'
'lichste'
'liberale'
'liabilit'
'lev'
'leu'
'letzter_'
'letter_'
'lesen_'
'lers'
'lennium'
'length_'
'leite'
'leistungen_'
'leichter_'
'legitime'
'lege_'
'legale'
'ledge'
'lebt_'
'lea'
'lder'
'laying_'
'lawyers_'
'lautet_'
'launch_'
'laufende'
'lation_'
'lati'
'lasting_'
'larger_'
'langer_'
'langem_'
'lamenta'
'lage'
'kür'
'kümmer'
'kö'
'kämpfen_'
'kurzem_'
'kundig'
'kul'
'kte'
'ktat'
'kritisiert_'
'kraft'
'kra'
'kostenlos'
'koste'
'korrekte'
'korrekt_'
'konzept'
'konzentr'
'kontrolliert'
'kontinuierliche'
'kont'
'konsolidier'
'konk'
'komplizierten_'
'komm'
'kol'
'knapp'
'klären_'
'klus_'
'kleiner_'
'klargestellt_'
'klarer_'
'kinds_'
'kin'
'kes_'
'kenntnis'
'ken'
'kehrt_'
'kas'
'kar'
'kampagnen_'
'kamp'
'kali'
'jüngste'
'jährliche'
'jährigen_'
'jährige'
'justizielle'
'just'
'jointly_'
'jet'
'jeopard'
'jen'
'jektiv'
'jegliche_'
'jed'
'j_'
'izit'
'ivit'
'iver'
'its'
'itor'
'itionen_'
'itet_'
'iten'
'ite_'
'itati'
'itari'
'itant'
'italienische'
'ita'
'ists_'
'istischen_'
'istische_'
'ission'
'israelischen_'
'isolate'
'islami'
'ises_'
'ischem_'
'irness_'
'irg'
'irakische'
'ira'
'ipa'
'ionen_'
'io'
'invit'
'investition'
'investigations_'
'investiert_'
'internen_'
'intern'
'interfere'
'interessant'
'intensiven_'
'intelligent'
'int_'
'insti'
'instan'
'inspire'
'inso'
'inside'
'innovative'
'innovat'
'innere'
'inn_'
'inju'
'ingu'
'ingl'
'ingen'
'infra'
'infolge_'
'inex'
'inevitable_'
'ineff'
'industrialis'
'individu'
'indispensable_'
'indirect'
'indicator'
'incu'
'incorporated_'
'incorporate_'
'incon'
'inco'
'incin'
'incident'
'ination_'
'inakzeptabel_'
'impress'
'importi'
'impl'
'immense_'
'imagin'
'image_'
'ilt'
'illustr'
'ilita'
'iliation'
'ilen_'
'igten_'
'igr'
'ignorier'
'ignored_'
'ignore_'
'igkeiten_'
'iges_'
'ified_'
'ieten_'
'iesen_'
'iers'
'iere'
'ierbar'
'ienen_'
'ien'
'ielle'
'iefe'
'iday'
'ick'
'ichtung'
'ichtig'
'iche'
'iate'
'höchsten'
'höchste'
'höchst'
'här'
'händler'
'hydro'
'hunt'
'humani'
'hua'
'hten'
'hrte'
'hra'
'hos'
'hood'
'holm'
'hole'
'holders_'
'hne'
'hman'
'historical_'
'hire_'
'hinzufügen_'
'hinnehmen_'
'hinausge'
'hil'
'highest_'
'hielt_'
'hesitat'
'hervorr'
'hers'
'heritage_'
'herausstellen_'
'heran'
'henden_'
'heißen_'
'heits'
'heit'
'heavy_'
'heart'
'he'
'harmoni'
'handled_'
'hande'
'haltung'
'hake_'
'gäng'
'gäbe_'
'gula'
'gründet'
'größte'
'grundlegende'
'griechischen_'
'green'
'gree'
'gravierende'
'gratu'
'grati'
'gr'
'gnal'
'gn'
'gkeit_'
'gis'
'gipfel_'
'gion'
'gges'
'gewährt'
'gewählten_'
'gewählte_'
'gewählt_'
'gewar'
'gewaltige'
'gewachsen'
'geteilt'
'gestützt'
'gestiegen'
'gestellte'
'gesetzliche'
'gesellschaften_'
'geschätzt'
'geschrieben_'
'gerechte'
'gep'
'geographical_'
'geogra'
'genieß'
'geneti'
'gemeinsamer_'
'gelt'
'gela'
'geklärt_'
'geholfen_'
'gehend'
'gehabt_'
'gegenseitig'
'gefühl_'
'gefährden_'
'gefähr'
'gefasst_'
'geein'
'geeignete_'
'geeignete'
'geeignet'
'geehrter_'
'geehrte_'
'gedacht_'
'gebühren'
'gebo'
'gebildet_'
'gear'
'ganze_'
'gant'
'gangene'
'game'
'ga_'
'für'
'führte_'
'führe'
'fühle'
'fügt_'
'fällig'
'fähige'
'fähig_'
'fäh'
'fying_'
'funktioniert_'
'funktionieren'
'funde'
'ftige'
'fte_'
'frühe'
'froh'
'freut_'
'freundliche'
'frequen'
'freight_'
'freie'
'fraud_'
'founde'
'formulate'
'formally_'
'forest'
'forcing_'
'folgerung'
'folgende'
'foc'
'flows_'
'fließen_'
'fli'
'flexible'
'flat'
'flags_'
'flag_'
'fixed_'
'fisher'
'fischerei_'
'firm'
'fires_'
'fire_'
'finish_'
'fine'
'fina'
'fie'
'ffic'
'ffen'
'fewer_'
'festzulegen_'
'festgelegte'
'ferti'
'fern'
'felde'
'feld'
'fehlende'
'fees_'
'feature_'
'fears_'
'faul'
'farm_'
'falsche_'
'fairen_'
'fahrzeuge'
'fahren_'
'facts_'
'factor_'
'factor'
'facilities_'
'facilitating_'
'facilitate_'
'fache'
'eye'
'extra_'
'expulsion_'
'exports_'
'exporti'
'exploit'
'existieren'
'existed_'
'executi'
'excuse'
'excess_'
'exception'
'except_'
'ew_'
'evo'
'everywhere_'
'eventuell_'
'evalu'
'evad'
'ev'
'euros'
'europaweit'
'europ'
'etzungen_'
'etz'
'ette'
'ett'
'etr'
'ete'
'estimated_'
'establ'
'esser'
'esse'
'esday_'
'erörtern_'
'eröffnet'
'erzeugung'
'erwiesen_'
'erwi'
'erweiter'
'erweise'
'erweck'
'erwe'
'erwartet_'
'erung'
'erti'
'ersucht_'
'ersuchen_'
'erstelle'
'erschwer'
'erreich'
'ernsthafte_'
'ernsthaft_'
'ernste'
'ermutigen_'
'erlich'
'erlei'
'erlebt_'
'erleb'
'erkenn'
'erk_'
'erinne'
'erhebliche'
'erheben_'
'ergebnis'
'erfüllt_'
'erfr'
'erfor'
'erfolgreiche_'
'erfa'
'erer'
'erbringe'
'erarbeitete'
'eor'
'entwurf_'
'entsteh'
'entst'
'entsprechen_'
'entscheidung'
'ents_'
'entrepreneur'
'entiti'
'entirety_'
'entfal'
'entering_'
'enten'
'entative'
'enormen_'
'enorme_'
'enorm'
'eno'
'enie'
'enhanced_'
'energisch'
'endung_'
'endorse'
'ency'
'encouraged_'
'employer'
'empfind'
'emerged_'
'emerge'
'ements_'
'embryo'
'embr'
'embark'
'embar'
'elv'
'eln_'
'eller'
'eliminati'
'elf_'
'elektronischen_'
'electr'
'elde'
'ektu'
'ektiv'
'eiten_'
'eisen_'
'einzige'
'einzig'
'einverstanden_'
'eint'
'einstimmig_'
'einschl'
'einle'
'einheitlich'
'einhei'
'einhe'
'eingeräumt_'
'eingereichten_'
'eingeh'
'einführen_'
'einfache'
'eile'
'eigentlichen_'
'eigens'
'eide'
'eib'
'ehmen'
'ehen'
'ehemaligen_'
'egu'
'ega'
'effizien'
'effe'
'educati'
'edigen'
'edi'
'economies_'
'eckt_'
'echter_'
'echter'
'echnolog'
'echa'
'ebung'
'ebra'
'ebne'
'ebene_'
'ear_'
'ean_'
'ea_'
'dürften_'
'dü'
'dynamis'
'dynamic_'
'dy'
'durchsch'
'durchführen_'
'dukt'
'duc'
'druck'
'driver_'
'drive_'
'drin'
'dream'
'dre'
'dramatisch'
'dol'
'dog'
'divid'
'diversifi'
'dium'
'distributed_'
'distort'
'disre'
'dispute_'
'dismiss'
'disg'
'discipline_'
'disasters_'
'disappear'
'direct'
'diplomatic_'
'dioxi'
'digital'
'digen'
'differentiate'
'diesbezüglich'
'dienst'
'dictatorship_'
'dict'
'di_'
'devastati'
'deutsche_'
'deutliche_'
'detriment_'
'determini'
'dete'
'detailliert'
'destroyed_'
'desirable_'
'designate'
'deserv'
'derselbe'
'derive'
'deri'
'derer_'
'derartige_'
'depends_'
'dep'
'dens_'
'denjenigen_'
'demografische'
'dema'
'delete'
'delays_'
'definitely_'
'define_'
'deficit_'
'defi'
'deeply_'
'deep_'
'deck'
'decent'
'deca'
'debattier'
'dealt_'
'deals_'
'ddle'
'dde'
'db'
'dav'
'dauer'
'database'
'dara'
'dama'
'dair'
'dac'
'cycle_'
'ctiv'
'ction'
'criticise_'
'crew'
'credible_'
'court_'
'courses_'
'courage_'
'couple_'
'counterfeit'
'coordinate'
'conver'
'conv'
'contributing_'
'contribu'
'contradict'
'continents_'
'contaminated_'
'contain'
'conta'
'consult_'
'consul'
'consisten'
'consist'
'consequence_'
'conjunction_'
'congratulat'
'confusion_'
'confus'
'confirm'
'conducted_'
'concludes_'
'compliment'
'complie'
'complicated_'
'compli'
'complaint'
'competence_'
'comparison'
'compar'
'compa'
'commerc'
'comme'
'comitology_'
'comb'
'colo'
'collection'
'coincide'
'cod_'
'coal_'
'clarif'
'claims_'
'claim_'
'citizenship_'
'circle'
'cipal'
'cine'
'chä'
'chtet_'
'chrei'
'chma'
'chlossen_'
'chlag'
'chez_'
'chere'
'chemicals_'
'chemical_'
'chea'
'champion'
'chai'
'central'
'cease_'
'caution'
'causes_'
'cattle_'
'categories_'
'catch_'
'capital'
'capable_'
'capa'
'camps_'
'bürokratisch'
'bü'
'bureaucra'
'bten'
'brü'
'brutal'
'broken_'
'bro'
'bridg'
'breiten_'
'breite_'
'brechen'
'breath'
'breast_'
'boundar'
'borat'
'boden_'
'bloß'
'blic'
'bisherige'
'biologische'
'bilateralen_'
'bid'
'bezug_'
'bezeichnet'
'bewusste'
'bewerb'
'bewer'
'bew'
'betrieben'
'betre'
'betrachte_'
'betra'
'bestätigt_'
'bestände_'
'bestrafen_'
'bestr'
'bestimmungen_'
'bestimmt_'
'bestimmen_'
'bestehende_'
'beson'
'besitzt_'
'beschäftigung'
'beschäftigen_'
'berühr'
'berichterstatt'
'berichten_'
'berichte'
'bereitet_'
'bereiten_'
'berechtigte'
'berechtig'
'beraten_'
'beobacht'
'benefit'
'bemerkt'
'belo'
'belgischen_'
'bele'
'beiz'
'beiträg'
'beinhaltet_'
'beihilfe'
'behalt'
'begleite'
'begins_'
'beginnt_'
'begann'
'befürworten'
'befürworte_'
'befindliche'
'befinde'
'beeinträchtigt_'
'bedingten_'
'bedeuten_'
'beauftragten_'
'beauftrag'
'beac'
'basiert_'
'basieren'
'basically_'
'bart'
'band'
'ball_'
'bahn'
'backing_'
'aß_'
'awful'
'await'
'awa'
'aviation_'
'avi'
'ave'
'außerge'
'außen_'
'authorisation'
'auszuüben_'
'auswe'
'ausw'
'ausstatt'
'ausreicht'
'ausreichen_'
'ausmachen_'
'ausgest'
'ausgenommen'
'ausgeg'
'ausgaben_'
'aufr'
'aufk'
'aufgreif'
'aufges'
'aufgef'
'aufbauen'
'audio'
'auch'
'attractive_'
'attra'
'attended_'
'attempts_'
'atta'
'atso'
'atory_'
'atic'
'atera'
'astr'
'aste'
'assungen_'
'association_'
'asset'
'assessments_'
'aspirations_'
'artner'
'articles_'
'art'
'arriv'
'arra'
'arising_'
'arisch'
'aries_'
'arian'
'aria'
'argument'
'arbeit'
'approve_'
'apprecia'
'appoint'
'applicant_'
'appelliere_'
'appear'
'appa'
'app'
'apologi'
'anzugehen_'
'anzen'
'anz'
'anyone_'
'anwenden_'
'antworten_'
'antis'
'anticipat'
'anspruchsvoll'
'ansehen_'
'anon'
'announced_'
'announc'
'anl'
'ania'
'anha'
'angesprochene'
'angesehen_'
'angep'
'angen'
'angehör'
'angeboten_'
'ang'
'anerkennen_'
'andte'
'anden'
'anda_'
'ances'
'analysing_'
'analyses_'
'analys'
'amt'
'amkeit_'
'amin'
'amerika'
'amending_'
'amended_'
'ambition'
'alto'
'alte_'
'alte'
'alo'
'allocati'
'alliance_'
'allerg'
'alition_'
'alism'
'alisiert'
'aler_'
'akzeptabel_'
'aktuellen_'
'aktuelle'
'aktu'
'aktive_'
'akter'
'ahr'
'ahmen'
'ahl'
'agree'
'afte'
'afraid_'
'affordab'
'advocate_'
'advise'
'admi'
'adjustments_'
'adhere'
'activ'
'acted_'
'acquis_'
'acquire'
'achs'
'accompany'
'accompanied_'
'accident'
'abzielt_'
'abuses_'
'absurd_'
'abstimmung'
'abstain_'
'abse'
'abschließen'
'abort'
'abolish'
'abo'
'abe_'
'abe'
'abb'
'abandon_'
'Zweite'
'Zwecke_'
'Zweck_'
'Zw'
'Zuv'
'Zut'
'Zusatz'
'Zusagen_'
'Zus'
'Zentral'
'Zahlungen_'
'Zahlen_'
'York_'
'Yes'
'Ya'
'Wur'
'Would_'
'Wort'
'Wohlstand_'
'With'
'Wirtschaftsr'
'Wirtschaftsp'
'Wirtschaftsf'
'Wirkung_'
'Wirks'
'Will'
'Widerspruch_'
'Wichtigkeit_'
'Wettbewerbsver'
'Wettbewerbspo'
'Werk'
'Werb'
'Welche'
'Wel'
'Wat'
'Wandel'
'Wallström_'
'Wahr'
'Waffe'
'W_'
'Vorz'
'Vorsorge'
'Vorga'
'Visi'
'Visa_'
'Vis'
'Vietnam_'
'Vielzahl_'
'Viel'
'Vet'
'Veru'
'Vertrauens'
'Vertrags_'
'Vertiefung_'
'Vertei'
'Vert'
'Versi'
'Versammlung_'
'Verp'
'Verlängerung_'
'Verlag'
'Verla'
'Verhalten_'
'Verfassungsentwurf'
'Verfass'
'Verein'
'Verbü'
'Verbrechen_'
'Verbre'
'Verar'
'Var'
'VO'
'Urteil'
'Urs'
'Unters'
'Unterg'
'Unl'
'Universit'
'Umwelta'
'Umfeld_'
'Tür_'
'Tun'
'Tschech'
'Tro'
'Trad'
'Tourismus'
'Tou'
'Total'
'Tor'
'Titel_'
'Tim'
'Tibet'
'Thro'
'Those_'
'Their_'
'Tha'
'Text'
'Terrorismus'
'Territori'
'Ten'
'Teilen_'
'Technik'
'Tar'
'Tage_'
'Tab'
'Sä'
'Such'
'Subst'
'Subsidi'
'Stü'
'Studie'
'Struktur_'
'Strom'
'Straße_'
'Strategi'
'Strafv'
'Steuern'
'Stellungnahmen_'
'Stellenwert_'
'Stei'
'Stehende_'
'Statute'
'Standard'
'Stahl'
'Sprachen'
'Spielraum_'
'Spannung'
'Spani'
'Sozialist'
'Sozialdemokrati'
'Soviet_'
'Sou'
'Somet'
'Sollte_'
'Social'
'Slovak'
'Simbabwe_'
'Sicherheitsrat_'
'Sho'
'She'
'Sha'
'Sevilla_'
'Seuche'
'Sensibili'
'Sek'
'Seeverkehr'
'Schätzungen_'
'Schwäch'
'Schweden_'
'Schwa'
'Schw'
'Schutze'
'Schuld'
'Schre'
'Schott'
'Schmit'
'Schmi'
'Schlu'
'Schließung_'
'Schiff'
'Schiene_'
'Schengen_'
'Scheitern'
'Schatten'
'Satz_'
'Saatgut'
'Saal'
'SIS_'
'Russi'
'Rural_'
'Ruf_'
'Rou'
'Ros'
'Rome_'
'Right'
'Richt'
'Resolution_'
'Rep'
'Rent'
'Reich'
'Reh'
'Regarding_'
'Rechtssysteme'
'Rechtsstaat'
'Rechtssicherheit_'
'Rechtsausschuss'
'Rechnungs'
'Rec'
'Reali'
'Reaktionen_'
'Raums_'
'Ratifi'
'Rat'
'Rap'
'Ram'
'Rahmenbedingungen_'
'REACH_'
'Quote'
'Präsid'
'Prozent'
'Provi'
'Protocol_'
'Prot'
'Projekts_'
'Programme'
'Progr'
'Produzenten_'
'Problematik_'
'Priv'
'Prestige_'
'Preis'
'Pot'
'Positionen_'
'Polizei_'
'Pläne'
'Plenar'
'Planung_'
'Pie'
'Phänomen_'
'Phil'
'Pha'
'Pfeiler_'
'Peter'
'Pestizid'
'Perspective_'
'Person'
'Pension'
'Paul'
'Patienten_'
'Pat'
'Partnership'
'Parlamente_'
'Parlamente'
'Parlamentarier'
'Pari'
'Parallel'
'Palästinensische'
'Palästinenser'
'Palästina_'
'Palestinians_'
'Pak'
'Oste'
'Opt'
'Operation'
'Ol'
'Oh'
'Obwohl_'
'Nö'
'Nutzer_'
'Notw'
'Norm'
'Nordk'
'Nik'
'Niederl'
'Nepal'
'Nationalstaat'
'Nat'
'Nahrungsmittel'
'Nachhaltigkeit_'
'Nachf'
'Nachdruck_'
'Nachdem_'
'NGO'
'Männer_'
'Mängel_'
'Mun'
'Mugabe_'
'Most_'
'Mona'
'Moment_'
'Modern'
'Mittelmeerraum_'
'Missverständnis'
'Ministerpräsident_'
'Mini'
'Mind'
'Mig'
'Mess'
'Menschheit_'
'Menschenrechtsverletzungen_'
'Menschenrechtsko'
'Mensch_'
'Menge_'
'Mehrwert_'
'Med'
'Mechanismus_'
'McC'
'May'
'Materi'
'Marg'
'Mann_'
'Mangel_'
'Manage'
'Mai'
'Mag'
'Madrid'
'MS_'
'MO'
'Lux'
'Luc'
'Lis'
'Lern'
'Legitim'
'Leg'
'Lebanon_'
'Laufe'
'Lauf'
'Lannoye_'
'Lange'
'Lande'
'Körper'
'Kurz'
'Kurdis'
'Kun'
'Ku'
'Krieg'
'Kraftfahr'
'Korruption_'
'Korr'
'Kopenhagen'
'Koordinat'
'Kontinents_'
'Kontin'
'Kontakte'
'Konsum'
'Konsultationen_'
'Konserv'
'Konk'
'Kompromisse'
'Kompe'
'Kommunis'
'Kommissionsvorschlag_'
'Kommissionsmitglied'
'Kommissare'
'Kommi'
'Komit'
'Kohäsionspolitik_'
'Kohäsion'
'Kofinanzierung'
'Know'
'Kn'
'Klima_'
'Klau'
'Kir'
'Kinnock_'
'Kinderar'
'Kind'
'Ki'
'Kerne'
'Kern_'
'Kennzeichnung'
'Kenntnisse_'
'Keine'
'Katastrophe_'
'Kapit'
'Kann_'
'Kal'
'KMU_'
'Jun'
'Jugoslawien'
'Jugendliche'
'Jugend'
'Journalisten_'
'Jos'
'Johannes'
'Jer'
'Jeder_'
'Jam'
'Islami'
'Islam'
'Isl'
'Interventionen_'
'Interven'
'Internationale'
'Integrationsp'
'Integr'
'Inte'
'Institute_'
'Insbesondere_'
'Inneres_'
'Inne'
'Initia'
'Inha'
'Infla'
'Indonesi'
'Indi'
'Impuls'
'Immunität_'
'Imm'
'Identität_'
'Ideal'
'IP'
'IA'
'Häu'
'Häl'
'Hong'
'Hohe_'
'Hoff'
'Hochschul'
'Hilfen_'
'High_'
'Hersteller_'
'Herkunftsl'
'Herkunft'
'Heimatl'
'Hei'
'Having_'
'Haushaltspl'
'Haushaltsmittel'
'Haushaltsausschusses_'
'Haushaltsaus'
'Hauptziel'
'Haupts'
'Haupta'
'Handeln_'
'Han'
'Ham'
'Hal'
'Haftung_'
'H_'
'HCR_'
'Gut'
'Guinea'
'Grüne'
'Gründung_'
'Grundzüge'
'Grundw'
'Growth_'
'Great_'
'Gol'
'Glückw'
'Gleichbehandlung_'
'Gib'
'Gewicht'
'Gesundheitss'
'Gestaltung_'
'Gespräch'
'Gesi'
'Gesetzgeb'
'Geschlechter'
'Gericht_'
'Gericht'
'Gera'
'Georgi'
'Genau'
'Gemeinschaftsrechts_'
'Gemeinschaftsin'
'Geg'
'Gefühl_'
'Gefangenen_'
'Gefa'
'Gebühr'
'Geber'
'Garantien_'
'G_'
'GMOs_'
'GDP_'
'G8_'
'Führung'
'Födera'
'Fähigkeiten_'
'Futtermittel'
'Funktionieren_'
'Früh'
'Friedensp'
'Fremdenverkehr'
'Fremd'
'Freilassung_'
'Freedoms_'
'Frassoni_'
'Fragestunde_'
'Frage'
'Fortunately_'
'Formulierung'
'Follow'
'Folglich_'
'Flüge_'
'Flüchtlinge'
'Flugzeuge_'
'Fluggäste'
'Flexibilit'
'Fla'
'Fischereiabkommen_'
'Finn'
'Finanzdienstleistungen_'
'Fests'
'Fein'
'Federal'
'Faktor_'
'Fahrer'
'Fah'
'FO'
'Ext'
'Experten'
'Exp'
'Every'
'Euros'
'Europarat'
'Eurojust_'
'Eu'
'Erzeugnisse_'
'Erzeug'
'Erz'
'Erwägung'
'Erstellung_'
'Ersatz'
'Erinnerung'
'Ergebnissen_'
'Erfolge'
'Erdöl'
'Entwicklungszusammenarbeit_'
'Entw'
'Entf'
'Englisch'
'Eng'
'Energiet'
'Energiep'
'Energieeffizienz'
'Ende'
'Employment_'
'Empfehlung_'
'Einzelne'
'Einwanderungspolitik_'
'Einstellung_'
'Einsp'
'Einschätzung_'
'Einmischung'
'Einlad'
'Einhalt_'
'Einer_'
'Eigentumsrechte'
'Eigenschaft'
'Ehr'
'Egypt'
'Eff'
'Eco'
'Eastern_'
'EZB_'
'EWG_'
'ER'
'EN'
'EM'
'EEC_'
'ED'
'EA'
'Dän'
'Dy'
'During_'
'Durchführ'
'Durch_'
'Dru'
'Dringlichkeits'
'Dokument_'
'Dim'
'Differenz'
'Diese'
'Detail'
'Dep'
'Denmark_'
'Demokratisierung'
'Demokratische'
'Demo'
'Dem'
'Defence_'
'Def'
'Deck'
'Debatten_'
'Davon_'
'Davo'
'Dauer'
'Datum'
'Dasein'
'Darle'
'Dafürhalten_'
'Croatia'
'Coun'
'Control_'
'Conservati'
'Consequently_'
'Con'
'Compet'
'Communities_'
'Communis'
'Coelho_'
'Clearly_'
'Civil_'
'Christdemokraten_'
'Child'
'Chemi'
'Canc'
'CS'
'CIA_'
'Böge_'
'Butt'
'Brennstoff'
'Brasilien_'
'Boden'
'Bloc'
'Bla'
'Bl'
'Bis_'
'Biokraftstoff'
'Binnenmarkts_'
'Binnenm'
'Bill'
'Beweise_'
'Bewe'
'Betroffenen_'
'Betriebs'
'Betre'
'Bestä'
'Bestreb'
'Bestimm'
'Beschäftigten_'
'Beschwerden_'
'Beschlussfassung'
'Beschlu'
'Berichte'
'Bericht'
'Bereitstellung_'
'Beobacht'
'Belgien'
'Belg'
'Belange'
'Bela'
'Beitrittskandidaten_'
'Beispiel'
'Beihilfe'
'Beide'
'Behinderung'
'Begründung_'
'Bedürfnisse_'
'Baus'
'Baron'
'Barnier_'
'Bahn'
'Außenbeziehungen_'
'Automo'
'Authority_'
'Auswa'
'Ausschuß_'
'Aussa'
'Ausnahme_'
'Ausmaß'
'Ausland_'
'Ausgrenzung_'
'Ausgehend_'
'Ausgaben'
'Ausführung'
'Ausfuhr'
'Ausbr'
'Ausbeutung'
'Ausb'
'Augenm'
'Augenblick'
'Aufstockung'
'Aufs'
'Aufr'
'Aufklärung_'
'Aufheb'
'Auff'
'Auditor'
'Atomwaffen'
'Assozi'
'Artikel'
'Armenia'
'Armee'
'Argentin'
'Arbeitsplätzen_'
'Arbeitsgruppe'
'Arbeitsbe'
'Arbeitgeber'
'Arab_'
'Anzahl_'
'Any_'
'Anwendungsbereich_'
'Ant'
'Ansta'
'Anschlag'
'Anregung'
'Anr'
'Annäherung_'
'Angst_'
'Angriffe_'
'Angeh'
'Angebot'
'Andernfalls_'
'Ana'
'Amts'
'Alternative_'
'Alm'
'Allein'
'Alko'
'Algeri'
'Ala'
'Aktionsprogramm_'
'Aktions'
'Akteur_'
'Akt'
'Ah'
'Act'
'Ach'
'Acc'
'Abänderung'
'Absichten_'
'Abschl'
'Abl'
'Abhängigkeit'
'Abg'
'Abfälle_'
'Abfall'
'Abe'
'Abbau_'
'AT_'
'AC'
': „_'
': '_'
'91_'
'80'
'72'
'71'
'67'
'64_'
'63'
'61'
'58'
'37_'
'33'
'2015_'
'2012_'
'1997_'
'1996_'
'1993_'
'1992_'
'08_'
'05'
'014'
'011'
'007'
'.'_'
'. "_'
', "_'
'):_'
'))'
') '
' –'
' ..._'
' %._'
'à'
'­'
'q'
'X'
'?'
';'
'('
'’'
'–'
'…'
'‘'
'š'
'ć'
'Ü'
'\'
'['
'„'
'ž'
'Š'
'ł'
'ė'
'č'
'ê'
'ã'
'/'
','
'&'
'•'
'”'
'‚'
'Ι'
'Ε'
'Ś'
'Ő'
'ń'
'ľ'
'ğ'
'ę'
'ô'
'ò'
'ç'
'æ'
'Å'
'Á'
'¿'
'·'
':'
'—'
'>'
'<'
'-'
